<PAD>	0
<UNK>	0
<BOS>	0
<EOS>	0
in	-0
▁a	-1
▁t	-2
er	-3
on	-4
en	-5
at	-6
es	-7
or	-8
▁th	-9
▁A	-10
al	-11
an	-12
ing	-13
ti	-14
re	-15
▁c	-16
▁s	-17
ar	-18
ed	-19
▁o	-20
▁an	-21
ic	-22
is	-23
▁in	-24
▁p	-25
▁the	-26
el	-27
ro	-28
it	-29
==	-30
▁and	-31
▁m	-32
▁f	-33
le	-34
▁w	-35
▁of	-36
▁b	-37
▁to	-38
▁d	-39
▁S	-40
ch	-41
▁C	-42
▁AI	-43
ce	-44
ou	-45
ion	-46
om	-47
ent	-48
▁T	-49
ig	-50
as	-51
▁h	-52
▁I	-53
▁M	-54
us	-55
▁2	-56
ation	-57
et	-58
ut	-59
il	-60
▁P	-61
====	-62
▁(	-63
ol	-64
ers	-65
ve	-66
▁R	-67
▁n	-68
ec	-69
tion	-70
▁e	-71
ence	-72
▁re	-73
ur	-74
ell	-75
▁l	-76
▁In	-77
▁1	-78
ial	-79
ra	-80
fic	-81
▁G	-82
st	-83
ow	-84
▁20	-85
▁D	-86
ly	-87
▁is	-88
▁N	-89
im	-90
og	-91
▁for	-92
▁E	-93
▁pro	-94
▁B	-95
ge	-96
um	-97
ot	-98
▁on	-99
▁g	-100
tell	-101
▁L	-102
tellig	-103
▁Th	-104
id	-105
un	-106
ess	-107
omp	-108
▁that	-109
em	-110
▁F	-111
▁W	-112
ear	-113
th	-114
▁,	-115
telligence	-116
ith	-117
od	-118
tific	-119
op	-120
ter	-121
▁H	-122
ab	-123
ac	-124
ts	-125
ul	-126
ri	-127
tificial	-128
ev	-129
▁ma	-130
am	-131
▁as	-132
for	-133
rtificial	-134
▁be	-135
▁U	-136
========	-137
▁r	-138
▁us	-139
ew	-140
▁con	-141
pp	-142
▁le	-143
os	-144
ine	-145
▁202	-146
ay	-147
▁O	-148
ity	-149
ver	-150
ment	-151
ate	-152
▁wh	-153
ad	-154
ata	-155
▁or	-156
▁with	-157
▁ex	-158
ir	-159
tic	-160
ning	-161
▁are	-162
▁&	-163
▁comp	-164
our	-165
▁it	-166
▁The	-167
▁al	-168
uc	-169
▁v	-170
ork	-171
▁st	-172
rom	-173
▁J	-174
age	-175
ech	-176
form	-177
ore	-178
ep	-179
/2	-180
ap	-181
qu	-182
ci	-183
▁lear	-184
iz	-185
▁from	-186
▁can	-187
▁su	-188
▁by	-189
and	-190
est	-191
iv	-192
ist	-193
ations	-194
▁Artificial	-195
uman	-196
▁data	-197
ke	-198
igh	-199
ure	-200
ld	-201
▁intelligence	-202
ud	-203
▁Ch	-204
▁–	-205
earch	-206
odel	-207
if	-208
per	-209
▁Intelligence	-210
ive	-211
▁im	-212
▁3	-213
ust	-214
pl	-215
▁ch	-216
▁St	-217
▁[	-218
▁y	-219
▁en	-220
▁ac	-221
..	-222
tions	-223
ob	-224
yst	-225
are	-226
▁human	-227
20	-228
▁res	-229
ies	-230
ill	-231
ere	-232
ms	-233
ener	-234
▁un	-235
▁learning	-236
▁"	-237
ystem	-238
echn	-239
ain	-240
ag	-241
olog	-242
▁per	-243
).	-244
ach	-245
ect	-246
ical	-247
▁mach	-248
ble	-249
================	-250
ks	-251
ost	-252
▁Pro	-253
▁app	-254
▁model	-255
oun	-256
cess	-257
▁]	-258
ated	-259
ang	-260
ave	-261
▁at	-262
▁more	-263
▁Go	-264
▁V	-265
▁comput	-266
▁=	-267
duc	-268
ance	-269
▁we	-270
ard	-271
able	-272
▁19	-273
ous	-274
evel	-275
AI	-276
▁system	-277
ort	-278
fer	-279
▁Comp	-280
se	-281
rain	-282
evelop	-283
▁5	-284
ant	-285
▁ne	-286
ide	-287
▁Con	-288
▁An	-289
oc	-290
ber	-291
▁inc	-292
00	-293
end	-294
ual	-295
▁201	-296
out	-297
▁ad	-298
▁ab	-299
art	-300
▁artificial	-301
echnolog	-302
▁4	-303
ory	-304
iti	-305
▁Wh	-306
lic	-307
ents	-308
ome	-309
so	-310
etw	-311
▁K	-312
all	-313
▁sp	-314
▁have	-315
ast	-316
/25	-317
ould	-318
▁cont	-319
▁this	-320
ia	-321
ition	-322
ef	-323
▁Al	-324
ary	-325
ug	-326
▁(20	-327
enti	-328
▁not	-329
▁Y	-330
ative	-331
▁has	-332
ans	-333
▁imp	-334
▁gener	-335
ural	-336
ich	-337
▁En	-338
▁^	-339
ces	-340
▁man	-341
▁-	-342
ind	-343
ex	-344
king	-345
ines	-346
gra	-347
▁Cl	-348
eep	-349
ue	-350
),	-351
ogle	-352
ct	-353
▁“	-354
omm	-355
▁Re	-356
▁Ar	-357
▁work	-358
▁tr	-359
▁sh	-360
▁Ex	-361
ft	-362
ub	-363
▁machine	-364
ight	-365
act	-366
▁ag	-367
▁Google	-368
▁int	-369
tern	-370
▁Un	-371
pr	-372
ign	-373
now	-374
▁Q	-375
▁ar	-376
angu	-377
▁Lear	-378
▁models	-379
▁New	-380
ike	-381
etwork	-382
▁k	-383
erv	-384
ower	-385
vi	-386
ven	-387
▁2024	-388
red	-389
▁ro	-390
▁new	-391
ple	-392
▁rec	-393
▁systems	-394
ased	-395
cience	-396
ility	-397
row	-398
oud	-399
▁(1	-400
ther	-401
▁its	-402
echnology	-403
gor	-404
tics	-405
ack	-406
▁pl	-407
▁qu	-408
▁do	-409
up	-410
eth	-411
...	-412
▁develop	-413
▁+	-414
ee	-415
ens	-416
ail	-417
ational	-418
▁Us	-419
▁use	-420
ision	-421
▁which	-422
tim	-423
tive	-424
▁process	-425
yp	-426
ors	-427
▁such	-428
lud	-429
anguage	-430
▁j	-431
▁We	-432
SA	-433
▁/	-434
oo	-435
▁$	-436
ese	-437
ace	-438
pen	-439
▁research	-440
▁cl	-441
▁tas	-442
ving	-443
▁all	-444
aly	-445
ip	-446
ics	-447
gorith	-448
ise	-449
uil	-450
orld	-451
▁2025	-452
ware	-453
▁Data	-454
ely	-455
▁used	-456
▁network	-457
ating	-458
ass	-459
ource	-460
PT	-461
ath	-462
▁10	-463
ry	-464
ron	-465
▁go	-466
ates	-467
ite	-468
▁out	-469
hy	-470
ogn	-471
▁their	-472
▁train	-473
▁dis	-474
▁how	-475
▁will	-476
▁cre	-477
▁Comput	-478
▁you	-479
▁about	-480
▁dec	-481
▁they	-482
▁aut	-483
formation	-484
olu	-485
▁:	-486
very	-487
▁For	-488
▁includ	-489
▁cap	-490
ervic	-491
uss	-492
ound	-493
▁und	-494
ities	-495
▁Chat	-496
ase	-497
▁know	-498
▁so	-499
▁This	-500
▁Sp	-501
ress	-502
iel	-503
▁What	-504
▁Cloud	-505
gram	-506
ific	-507
ext	-508
ib	-509
▁6	-510
▁des	-511
bot	-512
led	-513
inal	-514
▁Res	-515
ruc	-516
ss	-517
one	-518
ages	-519
▁App	-520
▁but	-521
/24	-522
ols	-523
▁Qu	-524
▁cons	-525
oll	-526
ord	-527
▁other	-528
▁200	-529
▁It	-530
".	-531
ason	-532
▁like	-533
uild	-534
▁2023	-535
und	-536
▁algorith	-537
ff	-538
les	-539
▁computer	-540
ile	-541
▁our	-542
uring	-543
▁perform	-544
▁also	-545
ak	-546
▁tasks	-547
lo	-548
ark	-549
▁9	-550
▁exam	-551
ield	-552
▁ind	-553
elp	-554
▁inter	-555
▁7	-556
ugh	-557
▁Open	-558
ov	-559
▁\	-560
▁proble	-561
▁language	-562
ally	-563
iness	-564
lications	-565
▁Ad	-566
▁was	-567
ures	-568
▁what	-569
GPT	-570
arge	-571
ments	-572
usiness	-573
▁produc	-574
ame	-575
ced	-576
ture	-577
▁(19	-578
iginal	-579
▁exper	-580
orial	-581
eved	-582
ph	-583
▁your	-584
▁ass	-585
▁original	-586
eal	-587
▁analy	-588
▁machines	-589
eg	-590
▁em	-591
▁Mach	-592
ree	-593
▁sim	-594
▁learn	-595
ric	-596
ived	-597
▁acc	-598
rough	-599
oss	-600
▁some	-601
ime	-602
▁bec	-603
▁than	-604
▁8	-605
▁Deep	-606
eed	-607
▁Science	-608
pt	-609
cri	-610
int	-611
▁Ret	-612
lex	-613
▁ed	-614
ings	-615
▁Am	-616
ized	-617
hil	-618
vig	-619
▁Arch	-620
▁help	-621
▁0	-622
gine	-623
als	-624
ons	-625
▁up	-626
▁USA	-627
erst	-628
▁adv	-629
▁Russ	-630
ogic	-631
▁trans	-632
▁Sh	-633
▁ChatGPT	-634
▁Learning	-635
elf	-636
▁one	-637
rieved	-638
▁technology	-639
cy	-640
put	-641
ert	-642
▁pre	-643
utorial	-644
▁neural	-645
▁pp	-646
ays	-647
irst	-648
rit	-649
osop	-650
▁How	-651
▁most	-652
ference	-653
bs	-654
ern	-655
ose	-656
tiv	-657
ences	-658
gan	-659
ink	-660
▁Ac	-661
▁dif	-662
hilosop	-663
eop	-664
▁Nor	-665
▁Tutorial	-666
▁over	-667
▁impro	-668
▁networks	-669
▁Source	-670
▁these	-671
▁make	-672
▁could	-673
li	-674
ong	-675
▁power	-676
▁decision	-677
▁Retrieved	-678
rad	-679
▁ev	-680
▁been	-681
▁into	-682
ffic	-683
ize	-684
res	-685
edia	-686
view	-687
▁As	-688
▁sc	-689
▁Cont	-690
▁comm	-691
▁reason	-692
▁Not	-693
ction	-694
eb	-695
ish	-696
ledge	-697
ina	-698
its	-699
▁inv	-700
ivers	-701
olution	-702
ook	-703
ears	-704
▁may	-705
ering	-706
▁build	-707
erstand	-708
▁Russell	-709
21	-710
onom	-711
ftware	-712
▁par	-713
▁Gener	-714
ond	-715
▁many	-716
▁algorithms	-717
▁Tr	-718
ting	-719
▁spec	-720
estions	-721
ire	-722
lob	-723
▁To	-724
ible	-725
▁Jun	-726
eople	-727
▁disc	-728
▁On	-729
ever	-730
▁Per	-731
atform	-732
▁recogn	-733
▁example	-734
ases	-735
enter	-736
▁world	-737
▁program	-738
telligent	-739
▁Archived	-740
▁typ	-741
▁So	-742
▁tools	-743
line	-744
▁deep	-745
ability	-746
▁compan	-747
ari	-748
olic	-749
▁Norvig	-750
az	-751
ik	-752
een	-753
▁Learn	-754
▁autom	-755
ful	-756
▁199	-757
▁Machine	-758
av	-759
acy	-760
ects	-761
ealth	-762
▁appro	-763
/25)	-764
ital	-765
▁Model	-766
▁def	-767
▁real	-768
ization	-769
▁applications	-770
ets	-771
ove	-772
vel	-773
▁‘	-774
iew	-775
ange	-776
ited	-777
▁using	-778
▁would	-779
▁training	-780
eat	-781
ety	-782
▁form	-783
▁prov	-784
▁time	-785
▁2024.	-786
oth	-787
▁News	-788
ential	-789
ilities	-790
▁OpenAI	-791
▁12	-792
▁Rev	-793
lobal	-794
uture	-795
▁11	-796
ular	-797
▁pat	-798
pport	-799
▁people	-800
ll	-801
erg	-802
riv	-803
▁Pl	-804
▁com	-805
erson	-806
▁there	-807
▁Develop	-808
▁understand	-809
aw	-810
rac	-811
▁Man	-812
ustom	-813
ten	-814
istory	-815
▁field	-816
▁content	-817
▁Research	-818
▁•	-819
▁\(	-820
▁servic	-821
▁Rob	-822
▁Search	-823
▁Im	-824
▁based	-825
50	-826
ecur	-827
redic	-828
▁information	-829
▁high	-830
▁text	-831
▁large	-832
erm	-833
▁business	-834
ross	-835
istic	-836
▁through	-837
▁humans	-838
ead	-839
ions	-840
▁me	-841
▁Ind	-842
,”	-843
▁am	-844
▁any	-845
rowth	-846
ake	-847
ode	-848
▁if	-849
uary	-850
atural	-851
ount	-852
ann	-853
▁Cap	-854
▁incre	-855
▁processing	-856
ants	-857
reat	-858
▁requ	-859
bots	-860
ights	-861
uch	-862
icro	-863
right	-864
▁first	-865
▁rep	-866
▁resp	-867
▁predic	-868
eli	-869
▁China	-870
ency	-871
▁only	-872
▁Technology	-873
MM	-874
vers	-875
▁May	-876
▁Intern	-877
ps	-878
▁no	-879
▁sa	-880
▁All	-881
▁expl	-882
ructure	-883
ID	-884
mber	-885
▁differ	-886
▁development	-887
gh	-888
ows	-889
▁op	-890
▁ris	-891
▁June	-892
▁Turing	-893
ick	-894
tit	-895
ples	-896
ources	-897
▁where	-898
ale	-899
over	-900
▁even	-901
▁need	-902
own	-903
ffici	-904
▁them	-905
ection	-906
▁search	-907
▁including	-908
ult	-909
vern	-910
▁Micro	-911
▁improve	-912
pre	-913
ries	-914
soft	-915
io	-916
▁ra	-917
▁oper	-918
▁stud	-919
ertain	-920
▁approach	-921
wo	-922
ism	-923
▁Ris	-924
▁now	-925
▁(201	-926
▁across	-927
▁generative	-928
ini	-929
▁det	-930
ecurity	-931
old	-932
aster	-933
▁techn	-934
▁reasoning	-935
24	-936
aus	-937
iqu	-938
▁read	-939
▁when	-940
▁every	-941
eng	-942
▁found	-943
▁science	-944
▁Microsoft	-945
ough	-946
ward	-947
▁poss	-948
ram	-949
ues	-950
▁Mc	-951
ober	-952
▁ins	-953
ticle	-954
▁design	-955
day	-956
ently	-957
▁indust	-958
/23	-959
▁Oct	-960
grams	-961
▁pattern	-962
ars	-963
▁general	-964
▁problem	-965
▁intelligent	-966
te	-967
▁fun	-968
▁sol	-969
▁More	-970
agement	-971
▁custom	-972
▁;	-973
osts	-974
▁Aut	-975
▁Met	-976
▁Servic	-977
▁October	-978
hys	-979
rop	-980
aking	-981
tical	-982
▁were	-983
▁users	-984
▁Univers	-985
gineering	-986
▁knowledge	-987
ject	-988
▁(199	-989
▁Note	-990
ration	-991
▁Inter	-992
hip	-993
ised	-994
▁exp	-995
ublic	-996
bo	-997
▁'	-998
▁Jo	-999
▁sm	-1000
▁And	-1001
▁just	-1002
estion	-1003
▁(2021	-1004
▁logic	-1005
▁assist	-1006
▁recognition	-1007
cl	-1008
ense	-1009
▁Cour	-1010
▁part	-1011
▁complex	-1012
▁problems	-1013
onth	-1014
tual	-1015
ether	-1016
ically	-1017
▁These	-1018
▁person	-1019
▁specific	-1020
▁16	-1021
▁Rel	-1022
▁being	-1023
▁images	-1024
ey	-1025
vir	-1026
▁vs	-1027
▁Work	-1028
▁lead	-1029
ater	-1030
rate	-1031
viron	-1032
▁Expl	-1033
▁well	-1034
▁effici	-1035
hilosophy	-1036
▁Is	-1037
ness	-1038
▁add	-1039
▁sub	-1040
▁who	-1041
▁25	-1042
▁...	-1043
▁dep	-1044
▁reg	-1045
▁experi	-1046
abilities	-1047
▁companies	-1048
eti	-1049
▁Int	-1050
arket	-1051
▁(200	-1052
▁Tech	-1053
Th	-1054
anc	-1055
enue	-1056
lear	-1057
arg	-1058
ica	-1059
▁Su	-1060
azon	-1061
ford	-1062
▁Har	-1063
▁see	-1064
odern	-1065
umber	-1066
▁Stan	-1067
▁Computer	-1068
▁computers	-1069
LM	-1070
ian	-1071
nov	-1072
ider	-1073
▁pot	-1074
anced	-1075
▁platform	-1076
▁Ev	-1077
▁av	-1078
round	-1079
▁Amazon	-1080
\)	-1081
de	-1082
▁)	-1083
ins	-1084
▁30	-1085
crib	-1086
▁mul	-1087
prise	-1088
▁does	-1089
▁vari	-1090
itional	-1091
▁Rising	-1092
▁software	-1093
▁IS	-1094
▁id	-1095
▁Inc	-1096
▁Sch	-1097
▁way	-1098
▁play	-1099
▁ability	-1100
echnologies	-1101
▁18	-1102
▁Ag	-1103
pres	-1104
▁Comm	-1105
▁future	-1106
▁Revenue	-1107
▁different	-1108
fy	-1109
ife	-1110
umb	-1111
▁15	-1112
ming	-1113
▁val	-1114
etween	-1115
23	-1116
ha	-1117
tem	-1118
▁Bl	-1119
▁el	-1120
▁vide	-1121
▁Global	-1122
▁University	-1123
urr	-1124
▁es	-1125
▁lay	-1126
▁set	-1127
▁two	-1128
itive	-1129
jects	-1130
ollow	-1131
rivacy	-1132
▁Compan	-1133
▁decisions	-1134
ie	-1135
ied	-1136
iss	-1137
rib	-1138
rid	-1139
▁17	-1140
▁26	-1141
▁inf	-1142
riving	-1143
▁Press	-1144
▁History	-1145
▁patterns	-1146
3.	-1147
ock	-1148
▁Ab	-1149
ains	-1150
ology	-1151
▁Generative	-1152
▁researchers	-1153
▁14	-1154
▁21	-1155
lish	-1156
▁Rep	-1157
ption	-1158
▁input	-1159
▁optim	-1160
ives	-1161
▁Cer	-1162
▁get	-1163
▁rem	-1164
▁top	-1165
ethod	-1166
etter	-1167
▁2022	-1168
▁Read	-1169
olutions	-1170
▁between	-1171
▁performance	-1172
▁rel	-1173
▁create	-1174
▁support	-1175
0.	-1176
Ex	-1177
lect	-1178
nual	-1179
ourn	-1180
perv	-1181
▁Over	-1182
▁much	-1183
tivity	-1184
▁include	-1185
-1	-1186
ames	-1187
▁Ins	-1188
▁Mor	-1189
▁lab	-1190
▁call	-1191
▁inst	-1192
▁years	-1193
▁Growth	-1194
▁services	-1195
sw	-1196
ash	-1197
ull	-1198
read	-1199
▁Gem	-1200
▁Sci	-1201
▁sign	-1202
illion	-1203
▁Human	-1204
▁Trans	-1205
▁analyz	-1206
▁identi	-1207
▁programs	-1208
ves	-1209
▁bi	-1210
ands	-1211
▁Mar	-1212
▁chat	-1213
▁System	-1214
pec	-1215
▁But	-1216
▁ear	-1217
▁ext	-1218
▁ref	-1219
▁import	-1220
▁repres	-1221
9.	-1222
BM	-1223
hn	-1224
▁Ed	-1225
emat	-1226
▁dom	-1227
force	-1228
▁2023.	-1229
▁image	-1230
onomous	-1231
▁Gemini	-1232
▁natural	-1233
▁potential	-1234
ym	-1235
000	-1236
▁13	-1237
ired	-1238
▁ben	-1239
▁job	-1240
▁health	-1241
▁techniqu	-1242
PU	-1243
fore	-1244
rast	-1245
ommend	-1246
▁Internet	-1247
atch	-1248
ument	-1249
▁Meta	-1250
▁Stud	-1251
▁self	-1252
▁environ	-1253
▁Certific	-1254
the	-1255
ather	-1256
ocial	-1257
▁World	-1258
▁making	-1259
pervised	-1260
IT	-1261
ty	-1262
ice	-1263
loy	-1264
▁ob	-1265
arth	-1266
ause	-1267
▁min	-1268
▁sur	-1269
asing	-1270
ented	-1271
gress	-1272
▁Enter	-1273
▁organ	-1274
athemat	-1275
▁Produc	-1276
▁article	-1277
25	-1278
ery	-1279
man	-1280
pos	-1281
pro	-1282
sis	-1283
care	-1284
▁test	-1285
igital	-1286
oy	-1287
▁23	-1288
iven	-1289
ocus	-1290
▁Top	-1291
▁mem	-1292
olicy	-1293
▁Cons	-1294
▁Mone	-1295
owered	-1296
▁avail	-1297
▁class	-1298
▁level	-1299
▁start	-1300
▁access	-1301
▁products	-1302
▁24	-1303
▁Ne	-1304
▁eth	-1305
ounts	-1306
roduc	-1307
▁often	-1308
▁provid	-1309
▁without	-1310
▁building	-1311
▁personal	-1312
▁Questions	-1313
-4	-1314
▁Be	-1315
ined	-1316
▁run	-1317
▁answ	-1318
▁CapEx	-1319
▁method	-1320
hilosoph	-1321
▁Information	-1322
ool	-1323
tiz	-1324
▁At	-1325
▁By	-1326
▁Or	-1327
ergy	-1328
rong	-1329
▁Des	-1330
▁IBM	-1331
▁Jan	-1332
▁arg	-1333
▁dat	-1334
▁High	-1335
▁fact	-1336
▁feat	-1337
▁pres	-1338
▁agents	-1339
▁contin	-1340
▁function	-1341
to	-1342
▁|	-1343
rol	-1344
▁te	-1345
oint	-1346
▁Get	-1347
▁lim	-1348
ature	-1349
▁They	-1350
▁With	-1351
▁govern	-1352
▁capabilities	-1353
▁technologies	-1354
su	-1355
-20	-1356
ner	-1357
ted	-1358
ute	-1359
fess	-1360
unch	-1361
▁Cre	-1362
▁ago	-1363
▁find	-1364
▁made	-1365
▁mind	-1366
▁multi	-1367
▁think	-1368
▁Interview	-1369
2.	-1370
air	-1371
amp	-1372
ebr	-1373
ley	-1374
pts	-1375
▁sci	-1376
▁hand	-1377
▁prom	-1378
▁rele	-1379
▁while	-1380
▁better	-1381
▁question	-1382
7.	-1383
EO	-1384
umm	-1385
urn	-1386
▁$1	-1387
▁et	-1388
eech	-1389
orre	-1390
irtual	-1391
▁January	-1392
▁Program	-1393
xt	-1394
yn	-1395
▁Sub	-1396
▁Web	-1397
▁Alph	-1398
▁cent	-1399
▁Analy	-1400
▁accur	-1401
ardware	-1402
▁questions	-1403
app	-1404
par	-1405
▁10.	-1406
▁dem	-1407
▁edit	-1408
▁prob	-1409
▁output	-1410
▁important	-1411
ify	-1412
▁De	-1413
▁Gu	-1414
till	-1415
▁LLM	-1416
▁Typ	-1417
ances	-1418
▁conc	-1419
▁invol	-1420
▁robots	-1421
▁possible	-1422
rastructure	-1423
▁se	-1424
,000	-1425
back	-1426
▁MIT	-1427
riven	-1428
▁Center	-1429
tization	-1430
▁Explore	-1431
78	-1432
▁McC	-1433
▁Amer	-1434
▁John	-1435
▁exist	-1436
▁Models	-1437
▁Language	-1438
ots	-1439
▁(5	-1440
▁Em	-1441
▁Ge	-1442
havi	-1443
▁198	-1444
▁log	-1445
▁next	-1446
▁Share	-1447
▁Annual	-1448
▁consider	-1449
LP	-1450
uce	-1451
▁1.	-1452
erms	-1453
ream	-1454
vard	-1455
▁Can	-1456
▁Cop	-1457
▁dev	-1458
aunch	-1459
ciety	-1460
▁long	-1461
▁known	-1462
▁might	-1463
▁today	-1464
▁should	-1465
AS	-1466
QL	-1467
uly	-1468
▁gu	-1469
load	-1470
ogra	-1471
umer	-1472
▁CEO	-1473
▁Sim	-1474
▁fin	-1475
▁saf	-1476
▁game	-1477
▁About	-1478
▁chess	-1479
▁innov	-1480
▁Business	-1481
▁Software	-1482
▁recommend	-1483
▁techniques	-1484
GI	-1485
IA	-1486
uf	-1487
The	-1488
fter	-1489
▁See	-1490
▁fac	-1491
▁then	-1492
▁type	-1493
▁agent	-1494
▁under	-1495
▁partic	-1496
5.	-1497
ix	-1498
▁Z	-1499
ank	-1500
▁ML	-1501
▁ve	-1502
like	-1503
▁bre	-1504
▁eff	-1505
izing	-1506
▁life	-1507
▁stat	-1508
▁trad	-1509
▁user	-1510
▁Health	-1511
▁Indust	-1512
▁change	-1513
▁theory	-1514
ognitive	-1515
▁capable	-1516
▁algorithm	-1517
▁represent	-1518
▁Development	-1519
):	-1520
hic	-1521
omes	-1522
field	-1523
▁uses	-1524
▁follow	-1525
▁number	-1526
▁Harvard	-1527
▁certain	-1528
8.	-1529
med	-1530
por	-1531
▁Bi	-1532
eler	-1533
ices	-1534
▁doi	-1535
▁med	-1536
ality	-1537
▁enab	-1538
▁task	-1539
alleng	-1540
entist	-1541
▁Logic	-1542
▁Usage	-1543
▁stand	-1544
▁those	-1545
formance	-1546
der	-1547
▁AP	-1548
▁ser	-1549
▁suc	-1550
ators	-1551
ually	-1552
▁Know	-1553
▁User	-1554
▁York	-1555
▁best	-1556
▁given	-1557
ificant	-1558
▁increasing	-1559
–1	-1560
VID	-1561
son	-1562
▁Do	-1563
abor	-1564
ists	-1565
▁ach	-1566
▁ent	-1567
based	-1568
▁year	-1569
▁Train	-1570
▁integ	-1571
▁manag	-1572
ovember	-1573
▁become	-1574
▁trained	-1575
▁designed	-1576
Go	-1577
gg	-1578
eek	-1579
low	-1580
ymb	-1581
▁er	-1582
▁ph	-1583
book	-1584
ince	-1585
▁100	-1586
▁You	-1587
▁Robo	-1588
▁cloud	-1589
ibility	-1590
▁around	-1591
▁deploy	-1592
lication	-1593
▁Privacy	-1594
▁Platform	-1595
-0	-1596
▁(2	-1597
▁(3	-1598
▁3.	-1599
road	-1600
▁Use	-1601
▁ide	-1602
▁ret	-1603
▁conn	-1604
▁curr	-1605
▁fund	-1606
▁robo	-1607
annica	-1608
cember	-1609
▁Years	-1610
▁video	-1611
eedback	-1612
▁intern	-1613
ritannica	-1614
▁developed	-1615
▁solutions	-1616
▁assistants	-1617
▁Engineering	-1618
erc	-1619
ved	-1620
▁(4	-1621
▁27	-1622
▁Pr	-1623
▁ke	-1624
ator	-1625
less	-1626
ners	-1627
▁Alex	-1628
▁writ	-1629
▁Service	-1630
▁December	-1631
▁November	-1632
▁Stanford	-1633
▁identify	-1634
▁Sa	-1635
duce	-1636
ling	-1637
▁Rec	-1638
▁col	-1639
▁end	-1640
arrow	-1641
efits	-1642
▁able	-1643
▁back	-1644
▁here	-1645
ournal	-1646
▁Apple	-1647
▁scale	-1648
entific	-1649
hysical	-1650
▁Network	-1651
▁28	-1652
▁cy	-1653
cept	-1654
ords	-1655
ully	-1656
▁One	-1657
▁say	-1658
cious	-1659
ected	-1660
evron	-1661
▁risk	-1662
▁view	-1663
havior	-1664
▁Build	-1665
▁solve	-1666
▁study	-1667
▁common	-1668
▁online	-1669
izations	-1670
▁because	-1671
▁whether	-1672
▁computing	-1673
▁Monetization	-1674
/1	-1675
▁—	-1676
arm	-1677
til	-1678
yth	-1679
▁ow	-1680
/25,	-1681
adem	-1682
comp	-1683
▁\(\	-1684
ially	-1685
▁2021	-1686
▁term	-1687
▁very	-1688
▁Users	-1689
▁While	-1690
▁chang	-1691
▁focus	-1692
▁public	-1693
▁X	-1694
oot	-1695
▁NA	-1696
orts	-1697
ploy	-1698
▁Our	-1699
▁eas	-1700
▁equ	-1701
ickly	-1702
itect	-1703
ready	-1704
▁free	-1705
▁take	-1706
▁ways	-1707
istics	-1708
▁Exper	-1709
▁enter	-1710
▁called	-1711
▁chevron	-1712
▁methods	-1713
▁customer	-1714
▁generate	-1715
▁available	-1716
▁processes	-1717
tt	-1718
▁GPT	-1719
▁GPU	-1720
rateg	-1721
▁news	-1722
▁same	-1723
▁month	-1724
▁still	-1725
ebruary	-1726
inition	-1727
ulation	-1728
▁market	-1729
▁amounts	-1730
▁service	-1731
▁environment	-1732
6.	-1733
ky	-1734
ken	-1735
▁Pre	-1736
▁Sep	-1737
▁sch	-1738
▁sec	-1739
▁via	-1740
▁apps	-1741
▁both	-1742
▁There	-1743
▁count	-1744
▁types	-1745
▁vehic	-1746
▁report	-1747
▁digital	-1748
▁February	-1749
▁industry	-1750
▁Enterprise	-1751
▁autonomous	-1752
▁management	-1753
▁understanding	-1754
0%	-1755
▁22	-1756
ests	-1757
ults	-1758
▁Big	-1759
▁Jav	-1760
ental	-1761
▁2014	-1762
▁Face	-1763
▁Some	-1764
▁Test	-1765
tember	-1766
powered	-1767
▁Policy	-1768
▁commun	-1769
▁respons	-1770
▁success	-1771
▁advanced	-1772
▁mathemat	-1773
▁particular	-1774
aS	-1775
co	-1776
ene	-1777
ral	-1778
ran	-1779
▁2.	-1780
▁US	-1781
▁ec	-1782
ends	-1783
itor	-1784
ooks	-1785
▁API	-1786
▁Acc	-1787
VIDIA	-1788
oment	-1789
orpor	-1790
thers	-1791
▁Exam	-1792
▁code	-1793
▁cost	-1794
▁open	-1795
▁repl	-1796
▁subs	-1797
▁within	-1798
▁Robotics	-1799
▁September	-1800
of	-1801
not	-1802
ably	-1803
ient	-1804
▁Fin	-1805
▁had	-1806
▁non	-1807
ement	-1808
▁cour	-1809
▁dist	-1810
ctions	-1811
▁early	-1812
▁NVIDIA	-1813
▁invest	-1814
▁modern	-1815
▁Contact	-1816
▁Systems	-1817
▁analyze	-1818
▁Algorith	-1819
▁Performance	-1820
▁x	-1821
ibr	-1822
ilar	-1823
▁2020	-1824
▁each	-1825
▁Large	-1826
▁brain	-1827
▁risks	-1828
▁vision	-1829
▁company	-1830
▁provide	-1831
▁examples	-1832
▁Knowledge	-1833
▁experience	-1834
▁significant	-1835
▁”	-1836
hat	-1837
ood	-1838
▁Adv	-1839
▁own	-1840
oming	-1841
ridge	-1842
▁Here	-1843
▁July	-1844
▁NASA	-1845
▁deli	-1846
ancial	-1847
ensive	-1848
▁Costs	-1849
▁Other	-1850
▁Space	-1851
▁Proble	-1852
▁Compute	-1853
▁control	-1854
▁philosoph	-1855
BS	-1856
ax	-1857
▁No	-1858
▁he	-1859
▁pr	-1860
lied	-1861
▁Dis	-1862
arter	-1863
▁arch	-1864
▁full	-1865
▁tech	-1866
anning	-1867
preced	-1868
▁Autom	-1869
▁again	-1870
fession	-1871
▁global	-1872
▁concern	-1873
▁convers	-1874
▁require	-1875
▁analysis	-1876
▁transform	-1877
precedented	-1878
▁efficiency	-1879
▁Applications	-1880
ML	-1881
ium	-1882
pid	-1883
▁sk	-1884
ging	-1885
ires	-1886
▁Apr	-1887
▁car	-1888
▁few	-1889
other	-1890
▁Quiz	-1891
▁View	-1892
making	-1893
option	-1894
ticles	-1895
ulture	-1896
▁label	-1897
etition	-1898
▁Neural	-1899
▁layers	-1900
▁discuss	-1901
▁history	-1902
▁analytics	-1903
▁Britannica	-1904
amb	-1905
ily	-1906
jor	-1907
och	-1908
ude	-1909
▁Up	-1910
bers	-1911
orth	-1912
▁exc	-1913
vious	-1914
ython	-1915
▁Vide	-1916
▁cars	-1917
▁sugg	-1918
active	-1919
olving	-1920
▁Future	-1921
▁Morgan	-1922
▁Python	-1923
▁Process	-1924
▁healthcare	-1925
▁philosophy	-1926
▁infrastructure	-1927
10	-1928
In	-1929
alu	-1930
ump	-1931
ilot	-1932
▁bas	-1933
▁doc	-1934
▁pur	-1935
throp	-1936
▁Educ	-1937
▁Rele	-1938
▁mean	-1939
▁past	-1940
▁March	-1941
▁works	-1942
▁United	-1943
▁engine	-1944
▁memory	-1945
▁transl	-1946
▁acceler	-1947
▁various	-1948
▁powerful	-1949
▁progress	-1950
▁conscious	-1951
▁industries	-1952
22	-1953
6,	-1954
DF	-1955
▁CS	-1956
imes	-1957
ites	-1958
ivid	-1959
ules	-1960
▁196	-1961
▁far	-1962
▁off	-1963
isual	-1964
orage	-1965
▁From	-1966
▁Part	-1967
▁down	-1968
▁show	-1969
▁Media	-1970
▁const	-1971
asoning	-1972
driving	-1973
▁Course	-1974
▁Incumb	-1975
▁propos	-1976
▁Services	-1977
▁Training	-1978
▁Philosophy	-1979
▁businesses	-1980
ier	-1981
cale	-1982
osed	-1983
▁Col	-1984
▁2019	-1985
▁conf	-1986
▁jobs	-1987
▁main	-1988
▁must	-1989
▁vast	-1990
lement	-1991
▁April	-1992
▁super	-1993
aterial	-1994
▁Instit	-1995
▁before	-1996
▁growth	-1997
▁launch	-1998
▁However	-1999
▁virtual	-2000
▁multiple	-2001
BN	-2002
ST	-2003
acts	-2004
ards	-2005
cent	-2006
ises	-2007
▁att	-2008
ribut	-2009
ufact	-2010
▁2015	-2011
▁ISBN	-2012
▁beli	-2013
▁cate	-2014
▁grow	-2015
everal	-2016
▁Types	-2017
ymbolic	-2018
▁speech	-2019
▁challeng	-2020
▁robotics	-2021
▁Computing	-2022
▁cognitive	-2023
▁resources	-2024
▁*	-2025
enn	-2026
oli	-2027
▁Co	-2028
▁If	-2029
oice	-2030
ately	-2031
▁Inst	-2032
ective	-2033
▁Cours	-2034
▁Tools	-2035
▁range	-2036
▁rapid	-2037
▁speed	-2038
▁Online	-2039
▁faster	-2040
▁hardware	-2041
▁interest	-2042
▁Developer	-2043
▁computational	-2044
▁@	-2045
ont	-2046
▁--	-2047
▁co	-2048
ceed	-2049
uilt	-2050
▁AGI	-2051
irect	-2052
▁care	-2053
▁less	-2054
itions	-2055
yright	-2056
▁Month	-2057
▁after	-2058
▁estim	-2059
thropic	-2060
▁School	-2061
▁impact	-2062
▁simple	-2063
ications	-2064
▁already	-2065
▁describ	-2066
▁devices	-2067
▁medical	-2068
▁Security	-2069
▁behavior	-2070
supervised	-2071
▁Reasoning	-2072
▁engineering	-2073
▁increasingly	-2074
30	-2075
aps	-2076
▁29	-2077
▁Br	-2078
▁mo	-2079
akes	-2080
ious	-2081
noun	-2082
▁Aug	-2083
▁Med	-2084
▁Next	-2085
▁Sign	-2086
▁adap	-2087
▁prac	-2088
▁break	-2089
entists	-2090
inforce	-2091
anguages	-2092
▁Natural	-2093
▁limited	-2094
▁running	-2095
▁several	-2096
▁chatbots	-2097
▁Evolution	-2098
▁Ep	-2099
clop	-2100
▁Mus	-2101
▁Reg	-2102
▁ens	-2103
▁err	-2104
▁iss	-2105
▁law	-2106
▁wid	-2107
ulate	-2108
▁char	-2109
▁comb	-2110
▁meas	-2111
▁team	-2112
cyclop	-2113
▁features	-2114
▁Companies	-2115
▁application	-2116
4.	-2117
min	-2118
off	-2119
▁31	-2120
aper	-2121
ills	-2122
roup	-2123
▁Log	-2124
▁Wik	-2125
▁sit	-2126
▁tra	-2127
aries	-2128
echan	-2129
elect	-2130
inese	-2131
▁2003	-2132
▁LLMs	-2133
▁Subs	-2134
▁educ	-2135
▁good	-2136
▁kind	-2137
▁said	-2138
▁tool	-2139
▁decad	-2140
▁Govern	-2141
▁Modern	-2142
▁others	-2143
▁safety	-2144
▁Chinese	-2145
▁General	-2146
▁Journal	-2147
▁vehicles	-2148
▁Management	-2149
▁operations	-2150
▁Certificate	-2151
2,	-2152
wh	-2153
▁Ec	-2154
outh	-2155
▁Eth	-2156
▁Job	-2157
▁NLP	-2158
▁Tel	-2159
▁big	-2160
arthy	-2161
ified	-2162
loads	-2163
▁Best	-2164
▁Mind	-2165
▁Your	-2166
▁Alpha	-2167
▁allow	-2168
▁smart	-2169
ialized	-2170
▁Americ	-2171
▁rather	-2172
pecially	-2173
▁benefits	-2174
▁automation	-2175
▁developers	-2176
intelligence	-2177
24,	-2178
PDF	-2179
rey	-2180
hips	-2181
ruct	-2182
▁Dec	-2183
▁Def	-2184
▁key	-2185
obile	-2186
▁Self	-2187
▁Spec	-2188
▁Year	-2189
▁move	-2190
▁step	-2191
▁webs	-2192
▁areas	-2193
▁great	-2194
▁major	-2195
▁robot	-2196
etitive	-2197
▁formal	-2198
▁strateg	-2199
▁McCarthy	-2200
ufacturing	-2201
inforcement	-2202
▁approaches	-2203
▁especially	-2204
▁Unprecedented	-2205
▁organizations	-2206
MA	-2207
alc	-2208
ift	-2209
ume	-2210
ych	-2211
▁Cy	-2212
▁IT	-2213
lete	-2214
udio	-2215
▁978	-2216
▁Lug	-2217
▁Mig	-2218
▁Mul	-2219
▁SAS	-2220
▁xAI	-2221
/25),	-2222
atest	-2223
ework	-2224
ories	-2225
thing	-2226
▁Camb	-2227
iction	-2228
▁perce	-2229
▁state	-2230
▁three	-2231
ination	-2232
ollabor	-2233
▁August	-2234
▁experts	-2235
▁accuracy	-2236
▁creating	-2237
▁security	-2238
▁Anthropic	-2239
▁Education	-2240
▁government	-2241
▁experiences	-2242
36	-2243
la	-2244
ild	-2245
let	-2246
oom	-2247
▁bl	-2248
▁br	-2249
▁fl	-2250
▁Rap	-2251
▁act	-2252
▁eng	-2253
▁rev	-2254
istor	-2255
ubble	-2256
▁(198	-2257
▁2017	-2258
▁2018	-2259
▁Stat	-2260
▁pass	-2261
▁sens	-2262
▁vers	-2263
ending	-2264
ooking	-2265
▁(1998	-2266
▁Luger	-2267
▁elect	-2268
▁goals	-2269
▁offer	-2270
▁point	-2271
▁refer	-2272
▁Market	-2273
▁econom	-2274
▁energy	-2275
▁refers	-2276
▁social	-2277
▁created	-2278
▁innovation	-2279
1.	-2280
idd	-2281
vey	-2282
Seek	-2283
port	-2284
ract	-2285
raud	-2286
rite	-2287
▁195	-2288
▁Ben	-2289
▁Dat	-2290
▁beg	-2291
▁cop	-2292
▁enh	-2293
atory	-2294
▁Lead	-2295
opular	-2296
▁costs	-2297
▁datab	-2298
▁Public	-2299
▁Social	-2300
▁answer	-2301
▁recent	-2302
▁though	-2303
▁Company	-2304
▁Society	-2305
▁ethical	-2306
▁million	-2307
▁respond	-2308
roduction	-2309
▁Encyclop	-2310
▁Examples	-2311
▁involves	-2312
▁students	-2313
▁Analytics	-2314
▁Inference	-2315
EE	-2316
We	-2317
ape	-2318
eel	-2319
oid	-2320
rior	-2321
vant	-2322
▁Car	-2323
▁Inv	-2324
▁Nil	-2325
▁Out	-2326
▁Par	-2327
▁don	-2328
▁his	-2329
iving	-2330
press	-2331
usion	-2332
▁chpt	-2333
▁happ	-2334
▁prot	-2335
ficult	-2336
ounder	-2337
uments	-2338
▁games	-2339
▁since	-2340
▁2023).	-2341
▁inform	-2342
▁itself	-2343
itecture	-2344
orporate	-2345
ramework	-2346
▁Problem	-2347
▁against	-2348
▁quickly	-2349
▁results	-2350
▁sources	-2351
ification	-2352
▁Facebook	-2353
artificial	-2354
▁Cambridge	-2355
▁enterprise	-2356
▁profession	-2357
▁Programming	-2358
▁computation	-2359
▁programming	-2360
1,	-2361
1:	-2362
TE	-2363
kes	-2364
▁4.	-2365
▁MA	-2366
ales	-2367
amps	-2368
ingu	-2369
sych	-2370
time	-2371
▁Add	-2372
▁DSA	-2373
▁Dev	-2374
▁Eng	-2375
acter	-2376
icine	-2377
▁Libr	-2378
▁Real	-2379
▁situ	-2380
▁summ	-2381
▁supp	-2382
ublish	-2383
▁Epoch	-2384
▁Rapid	-2385
▁built	-2386
ividual	-2387
▁Review	-2388
▁narrow	-2389
▁Stubble	-2390
▁actions	-2391
▁managed	-2392
▁includes	-2393
▁implement	-2394
▁Stubblefield	-2395
▁International	-2396
▁i	-2397
att	-2398
cal	-2399
irc	-2400
▁33	-2401
▁PM	-2402
berg	-2403
isms	-2404
ties	-2405
▁197	-2406
▁SQL	-2407
▁due	-2408
▁lik	-2409
oding	-2410
ution	-2411
▁2004	-2412
▁case	-2413
▁rece	-2414
▁sing	-2415
inking	-2416
onitor	-2417
▁Earth	-2418
▁reven	-2419
▁short	-2420
▁terms	-2421
▁Stanley	-2422
▁discover	-2423
▁insights	-2424
▁previous	-2425
▁customers	-2426
▁difficult	-2427
▁structure	-2428
▁challenges	-2429
)?	-2430
sh	-2431
we	-2432
ean	-2433
rem	-2434
tif	-2435
xim	-2436
▁($	-2437
▁El	-2438
abil	-2439
aily	-2440
onse	-2441
▁Cla	-2442
▁Dep	-2443
▁Inf	-2444
▁Ser	-2445
▁Tra	-2446
▁too	-2447
▁ver	-2448
antum	-2449
atson	-2450
ident	-2451
imals	-2452
world	-2453
▁1950	-2454
▁Care	-2455
▁GPUs	-2456
▁Good	-2457
▁Main	-2458
▁calc	-2459
▁turn	-2460
comput	-2461
▁(2004	-2462
▁Spend	-2463
▁cases	-2464
▁datas	-2465
▁right	-2466
▁usage	-2467
▁(5/25)	-2468
▁cannot	-2469
▁fields	-2470
▁current	-2471
▁predict	-2472
▁Adoption	-2473
▁predictions	-2474
ah	-2475
ne	-2476
itt	-2477
avig	-2478
esis	-2479
ieve	-2480
ured	-2481
▁pos	-2482
▁unc	-2483
level	-2484
▁enti	-2485
▁sect	-2486
▁lives	-2487
▁reach	-2488
vention	-2489
▁Commun	-2490
▁Design	-2491
ferences	-2492
▁advance	-2493
▁another	-2494
▁compute	-2495
▁produce	-2496
▁revenue	-2497
▁DeepSeek	-2498
▁Machines	-2499
▁internet	-2500
Artificial	-2501
▁platforms	-2502
▁representation	-2503
AR	-2504
WS	-2505
au	-2506
sp	-2507
CID	-2508
alk	-2509
hor	-2510
phy	-2511
ris	-2512
▁$0	-2513
▁34	-2514
▁Fr	-2515
rive	-2516
soci	-2517
sson	-2518
tice	-2519
yond	-2520
▁Ass	-2521
▁Det	-2522
▁Dif	-2523
▁asp	-2524
cript	-2525
rated	-2526
▁Cent	-2527
▁When	-2528
▁goal	-2529
▁last	-2530
driven	-2531
orrect	-2532
▁Using	-2533
▁broad	-2534
▁helps	-2535
▁least	-2536
▁space	-2537
itation	-2538
through	-2539
▁Academ	-2540
▁Robots	-2541
▁announ	-2542
▁beyond	-2543
▁employ	-2544
▁source	-2545
▁Copilot	-2546
▁Project	-2547
abilistic	-2548
▁Resources	-2549
▁definition	-2550
▁individual	-2551
ems	-2552
ote	-2553
ply	-2554
▁36	-2555
▁Si	-2556
aces	-2557
ativ	-2558
land	-2559
tise	-2560
▁Sur	-2561
▁aff	-2562
▁unl	-2563
▁vol	-2564
▁web	-2565
▁win	-2566
▁2000	-2567
▁4/25	-2568
▁Alan	-2569
▁Also	-2570
▁Mark	-2571
▁days	-2572
▁look	-2573
▁mass	-2574
▁outc	-2575
igures	-2576
tively	-2577
▁Ramps	-2578
▁Trump	-2579
▁among	-2580
▁fraud	-2581
▁initi	-2582
▁sense	-2583
▁share	-2584
illions	-2585
omentum	-2586
▁Invest	-2587
▁course	-2588
▁detect	-2589
ognition	-2590
▁achieve	-2591
▁learned	-2592
▁present	-2593
▁Institute	-2594
▁consciousness	-2595
29	-2596
▁%	-2597
enu	-2598
iag	-2599
rok	-2600
top	-2601
▁He	-2602
▁po	-2603
Mind	-2604
atic	-2605
ayes	-2606
cies	-2607
iter	-2608
uber	-2609
▁Cal	-2610
▁Net	-2611
▁yet	-2612
arget	-2613
imate	-2614
ronti	-2615
▁Back	-2616
▁Boot	-2617
▁Many	-2618
▁Post	-2619
▁That	-2620
-2024,	-2621
action	-2622
hysics	-2623
urther	-2624
▁Fully	-2625
▁adapt	-2626
▁attem	-2627
▁clear	-2628
▁media	-2629
▁write	-2630
issions	-2631
ography	-2632
▁Claude	-2633
▁Custom	-2634
▁Nature	-2635
▁Watson	-2636
▁mechan	-2637
entially	-2638
▁Capital	-2639
▁Product	-2640
▁leading	-2641
▁similar	-2642
▁Reference	-2643
▁workloads	-2644
▁Government	-2645
▁generation	-2646
▁recommendations	-2647
//	-2648
▁u	-2649
://	-2650
▁).	-2651
▁ef	-2652
eter	-2653
▁fil	-2654
▁leg	-2655
earle	-2656
ining	-2657
worth	-2658
▁rest	-2659
erging	-2660
ograph	-2661
▁2020.	-2662
▁Appro	-2663
▁Exerc	-2664
▁effor	-2665
▁small	-2666
▁words	-2667
▁Access	-2668
▁Energy	-2669
▁Engine	-2670
▁Report	-2671
▁demand	-2672
▁histor	-2673
▁rights	-2674
▁widely	-2675
▁Nilsson	-2676
▁categor	-2677
▁continu	-2678
▁express	-2679
▁looking	-2680
▁Consumer	-2681
▁Feedback	-2682
▁Industry	-2683
▁Overview	-2684
▁financial	-2685
▁inference	-2686
▁Intelligent	-2687
-3	-2688
▁	-2689
era	-2690
ips	-2691
ott	-2692
ury	-2693
yle	-2694
▁50	-2695
▁My	-2696
▁Op	-2697
▁Sk	-2698
anti	-2699
apan	-2700
eder	-2701
▁AWS	-2702
▁Mag	-2703
▁Now	-2704
▁fam	-2705
▁obs	-2706
acity	-2707
cribe	-2708
icate	-2709
▁Arts	-2710
▁Free	-2711
▁Time	-2712
▁Will	-2713
▁wide	-2714
▁12/24	-2715
▁2025,	-2716
▁First	-2717
▁Found	-2718
▁event	-2719
▁group	-2720
▁layer	-2721
▁shown	-2722
▁simpl	-2723
▁(4/25)	-2724
▁Related	-2725
▁domains	-2726
▁enables	-2727
▁product	-2728
▁countries	-2729
▁languages	-2730
▁relations	-2731
3–	-2732
40	-2733
Ch	-2734
Ph	-2735
▁~	-2736
▁’	-2737
her	-2738
ird	-2739
▁Te	-2740
icit	-2741
play	-2742
▁Doc	-2743
▁ISS	-2744
▁Law	-2745
▁enc	-2746
▁htt	-2747
gener	-2748
▁Conn	-2749
▁Edit	-2750
▁Home	-2751
▁Pres	-2752
▁idea	-2753
▁want	-2754
▁Image	-2755
▁Index	-2756
▁Japan	-2757
▁above	-2758
▁email	-2759
▁evalu	-2760
▁regul	-2761
▁Searle	-2762
▁domain	-2763
▁enable	-2764
▁entire	-2765
▁inputs	-2766
▁stream	-2767
▁strong	-2768
▁videos	-2769
▁Chatbot	-2770
▁Culture	-2771
▁deliver	-2772
▁related	-2773
▁Momentum	-2774
▁National	-2775
▁interpre	-2776
▁material	-2777
▁physical	-2778
▁projects	-2779
▁requires	-2780
▁personalized	-2781
▁productivity	-2782
16	-2783
5)	-2784
BC	-2785
ai	-2786
SQL	-2787
aim	-2788
eck	-2789
edd	-2790
ope	-2791
way	-2792
inci	-2793
inks	-2794
ints	-2795
left	-2796
link	-2797
ocal	-2798
odal	-2799
onst	-2800
raph	-2801
▁CBS	-2802
▁ess	-2803
▁5/25	-2804
▁Cost	-2805
▁Java	-2806
▁cred	-2807
▁four	-2808
▁role	-2809
▁seen	-2810
ention	-2811
ission	-2812
▁makes	-2813
▁rules	-2814
▁teach	-2815
▁Change	-2816
▁States	-2817
▁actual	-2818
▁simply	-2819
▁things	-2820
▁visual	-2821
▁becomes	-2822
▁decades	-2823
▁driving	-2824
▁helping	-2825
▁popular	-2826
▁privacy	-2827
▁started	-2828
▁working	-2829
▁Articles	-2830
▁DeepMind	-2831
▁Networks	-2832
▁automate	-2833
▁Platforms	-2834
▁automated	-2835
▁efficient	-2836
▁technical	-2837
▁typically	-2838
▁Processing	-2839
▁Scientific	-2840
▁Competition	-2841
▁Introduction	-2842
-5	-2843
RE	-2844
ru	-2845
zz	-2846
ili	-2847
odc	-2848
▁Sc	-2849
ones	-2850
ored	-2851
urop	-2852
▁Hor	-2853
▁Sam	-2854
▁Try	-2855
▁Why	-2856
▁cri	-2857
▁emb	-2858
anger	-2859
cepts	-2860
ening	-2861
inary	-2862
reats	-2863
▁2/25	-2864
▁AIMA	-2865
▁Have	-2866
▁ISSN	-2867
▁Resp	-2868
minist	-2869
▁Agent	-2870
▁Innov	-2871
▁begin	-2872
▁match	-2873
▁value	-2874
▁voice	-2875
▁Create	-2876
▁likely	-2877
▁manage	-2878
▁review	-2879
▁skills	-2880
▁topics	-2881
atically	-2882
▁Support	-2883
▁applied	-2884
▁contain	-2885
▁meaning	-2886
▁solving	-2887
▁Exercise	-2888
▁Sciences	-2889
▁evolution	-2890
▁increased	-2891
bersecurity	-2892
▁considered	-2893
3,	-2894
fl	-2895
uro	-2896
urs	-2897
eman	-2898
know	-2899
ying	-2900
▁Bro	-2901
▁mis	-2902
▁why	-2903
▁Siri	-2904
▁Summ	-2905
▁achi	-2906
▁come	-2907
▁reli	-2908
▁says	-2909
▁true	-2910
▁usef	-2911
alling	-2912
onents	-2913
▁Terms	-2914
▁paper	-2915
▁story	-2916
▁Events	-2917
▁Number	-2918
▁action	-2919
▁calcul	-2920
▁direct	-2921
▁ensure	-2922
▁ethics	-2923
▁fundam	-2924
▁result	-2925
▁Finance	-2926
▁concept	-2927
▁monitor	-2928
▁objects	-2929
▁American	-2930
▁addition	-2931
▁advances	-2932
▁collabor	-2933
▁feedback	-2934
▁interact	-2935
▁copyright	-2936
▁recognize	-2937
▁developing	-2938
▁traditional	-2939
++	-2940
38	-2941
cc	-2942
ox	-2943
IST	-2944
\).	-2945
eve	-2946
nos	-2947
orm	-2948
ton	-2949
ube	-2950
▁IQ	-2951
▁Mo	-2952
▁Ph	-2953
esla	-2954
kens	-2955
oday	-2956
▁emo	-2957
▁gen	-2958
aving	-2959
▁diag	-2960
▁fair	-2961
uclear	-2962
▁Datab	-2963
▁Europ	-2964
▁Power	-2965
▁Techn	-2966
▁Token	-2967
▁https	-2968
pportun	-2969
▁Econom	-2970
▁Theory	-2971
▁Topics	-2972
▁Travel	-2973
▁consum	-2974
▁enough	-2975
▁events	-2976
▁useful	-2977
ructures	-2978
throughs	-2979
▁Library	-2980
▁capital	-2981
▁further	-2982
▁labeled	-2983
▁playing	-2984
▁society	-2985
▁argument	-2986
▁increase	-2987
▁education	-2988
▁improving	-2989
information	-2990
▁probability	-2991
▁mathematical	-2992
5,	-2993
AP	-2994
NN	-2995
RI	-2996
ek	-2997
–4	-2998
Ops	-2999
ges	-3000
inc	-3001
pri	-3002
reh	-3003
zer	-3004
▁40	-3005
▁Le	-3006
▁Sm	-3007
▁UK	-3008
/24,	-3009
▁Lim	-3010
▁Upd	-3011
▁war	-3012
insky	-3013
lease	-3014
mouth	-3015
▁2016	-3016
▁APIs	-3017
▁Grok	-3018
▁NIST	-3019
▁fast	-3020
▁once	-3021
▁page	-3022
▁prev	-3023
▁rise	-3024
▁Impro	-3025
▁colle	-3026
▁cover	-3027
ulative	-3028
▁issues	-3029
▁toward	-3030
cription	-3031
▁America	-3032
▁Courses	-3033
▁Quantum	-3034
▁answers	-3035
▁billion	-3036
▁centers	-3037
▁demonst	-3038
▁Approach	-3039
▁Contents	-3040
▁Physical	-3041
▁database	-3042
▁Solutions	-3043
▁functions	-3044
▁interpret	-3045
▁Algorithms	-3046
▁foundation	-3047
▁scientists	-3048
▁architecture	-3049
19	-3050
1–	-3051
26	-3052
8,	-3053
SF	-3054
St	-3055
ki	-3056
lu	-3057
/22	-3058
\),	-3059
ett	-3060
oti	-3061
rug	-3062
uel	-3063
abet	-3064
hind	-3065
pite	-3066
▁Dan	-3067
▁NSF	-3068
▁adj	-3069
▁fir	-3070
▁hyp	-3071
▁mil	-3072
ensor	-3073
oring	-3074
owers	-3075
train	-3076
▁Feat	-3077
▁Vert	-3078
▁bias	-3079
▁core	-3080
▁impl	-3081
▁neur	-3082
▁prec	-3083
▁sets	-3084
elines	-3085
ording	-3086
ricity	-3087
▁978-0	-3088
▁Alexa	-3089
▁Start	-3090
▁Tesla	-3091
▁Today	-3092
▁error	-3093
▁needs	-3094
actions	-3095
▁(2021)	-3096
▁center	-3097
▁expert	-3098
▁single	-3099
▁values	-3100
▁changes	-3101
▁chatbot	-3102
▁publish	-3103
▁Hardware	-3104
▁concerns	-3105
▁explicit	-3106
▁Algorithm	-3107
▁character	-3108
▁following	-3109
▁Incumbents	-3110
▁programmed	-3111
▁successful	-3112
▁optimization	-3113
▁Computational	-3114
);	-3115
39	-3116
ade	-3117
gre	-3118
mar	-3119
▁1,	-3120
▁2,	-3121
▁7.	-3122
▁Ap	-3123
▁GA	-3124
iler	-3125
jord	-3126
ktop	-3127
outs	-3128
plex	-3129
utes	-3130
ways	-3131
writ	-3132
▁Ask	-3133
▁CSS	-3134
▁Dav	-3135
▁Key	-3136
▁did	-3137
▁org	-3138
▁som	-3139
▁spe	-3140
atter	-3141
eters	-3142
idden	-3143
scale	-3144
▁Webs	-3145
▁grad	-3146
▁pers	-3147
▁race	-3148
▁(2023	-3149
▁apply	-3150
▁doesn	-3151
▁intel	-3152
▁navig	-3153
▁order	-3154
▁reduc	-3155
▁times	-3156
istical	-3157
▁(3/25)	-3158
▁Faster	-3159
▁Minsky	-3160
▁Videos	-3161
▁allows	-3162
▁detail	-3163
▁expect	-3164
▁series	-3165
artmouth	-3166
ingsjord	-3167
▁feature	-3168
▁growing	-3169
▁leaders	-3170
▁Analysis	-3171
▁accurate	-3172
▁actually	-3173
▁datasets	-3174
▁existing	-3175
▁instance	-3176
▁relevant	-3177
▁required	-3178
▁Computers	-3179
▁community	-3180
▁Healthcare	-3181
▁capability	-3182
▁particularly	-3183
14	-3184
15	-3185
75	-3186
9,	-3187
aid	-3188
eas	-3189
ipp	-3190
ren	-3191
tis	-3192
ush	-3193
uzz	-3194
▁Ox	-3195
▁de	-3196
Tube	-3197
alog	-3198
ides	-3199
imin	-3200
rial	-3201
ring	-3202
▁Mem	-3203
▁Pat	-3204
▁War	-3205
▁cut	-3206
▁led	-3207
flows	-3208
iting	-3209
overy	-3210
▁Blue	-3211
▁Code	-3212
▁Hint	-3213
▁Life	-3214
▁Roll	-3215
▁done	-3216
▁ever	-3217
▁fail	-3218
▁harm	-3219
▁mone	-3220
▁util	-3221
ipedia	-3222
ourney	-3223
umbers	-3224
ustain	-3225
▁Bayes	-3226
▁began	-3227
▁forec	-3228
▁guide	-3229
Founder	-3230
osystem	-3231
▁2024).	-3232
▁Active	-3233
▁Oxford	-3234
▁advant	-3235
▁associ	-3236
▁during	-3237
▁latest	-3238
learning	-3239
▁Virtual	-3240
▁fiction	-3241
▁storage	-3242
▁univers	-3243
▁website	-3244
▁Alphabet	-3245
▁Programs	-3246
▁introduc	-3247
▁outcomes	-3248
▁planning	-3249
▁response	-3250
▁Philosoph	-3251
▁detection	-3252
▁framework	-3253
▁intellect	-3254
▁conference	-3255
▁integration	-3256
▁environments	-3257
7,	-3258
73	-3259
99	-3260
En	-3261
9).	-3262
bor	-3263
lan	-3264
oph	-3265
urg	-3266
zes	-3267
▁),	-3268
▁0%	-3269
▁Es	-3270
▁MM	-3271
acks	-3272
asts	-3273
itiz	-3274
loom	-3275
ools	-3276
oted	-3277
ovel	-3278
rows	-3279
tain	-3280
ynth	-3281
▁Are	-3282
▁Ear	-3283
▁McK	-3284
▁Six	-3285
▁Val	-3286
▁deb	-3287
▁let	-3288
▁occ	-3289
ecess	-3290
ended	-3291
inger	-3292
nings	-3293
ously	-3294
times	-3295
▁1990	-3296
▁3/25	-3297
▁Broo	-3298
▁Char	-3299
▁Find	-3300
▁Show	-3301
▁deal	-3302
▁feel	-3303
▁larg	-3304
▁list	-3305
▁valu	-3306
encies	-3307
source	-3308
verage	-3309
▁2018.	-3310
▁Colle	-3311
▁Elect	-3312
▁Games	-3313
▁Guide	-3314
▁Offic	-3315
▁Video	-3316
▁fully	-3317
▁param	-3318
▁tests	-3319
▁trust	-3320
ditions	-3321
plexity	-3322
ributed	-3323
timodal	-3324
▁Before	-3325
▁Ethics	-3326
▁Follow	-3327
▁Server	-3328
▁determ	-3329
▁offers	-3330
▁proper	-3331
▁subset	-3332
oretical	-3333
▁YouTube	-3334
▁context	-3335
▁smarter	-3336
▁suggest	-3337
sychology	-3338
▁Mathemat	-3339
▁Products	-3340
▁concepts	-3341
▁provides	-3342
▁Dartmouth	-3343
▁currently	-3344
▁Bringsjord	-3345
▁situations	-3346
▁translation	-3347
",	-3348
28	-3349
ww	-3350
ats	-3351
ecu	-3352
gle	-3353
osh	-3354
sey	-3355
▁75	-3356
▁NY	-3357
▁Se	-3358
iers	-3359
oole	-3360
rees	-3361
side	-3362
▁isn	-3363
▁pic	-3364
▁upd	-3365
abled	-3366
aging	-3367
azine	-3368
place	-3369
▁Does	-3370
▁Fast	-3371
▁Help	-3372
▁Link	-3373
▁Mich	-3374
▁Rise	-3375
▁clos	-3376
▁guid	-3377
▁link	-3378
▁pric	-3379
ancing	-3380
anking	-3381
ederal	-3382
▁Adver	-3383
▁Broad	-3384
▁Recur	-3385
▁audio	-3386
▁champ	-3387
▁discl	-3388
▁entry	-3389
▁units	-3390
ections	-3391
ruction	-3392
▁DevOps	-3393
▁Hinton	-3394
▁Speech	-3395
▁Studio	-3396
▁became	-3397
▁learns	-3398
▁months	-3399
▁target	-3400
itations	-3401
ribution	-3402
▁Article	-3403
▁English	-3404
▁Falling	-3405
▁Physics	-3406
▁Storage	-3407
▁finance	-3408
▁funding	-3409
▁outputs	-3410
▁subject	-3411
▁Medicine	-3412
▁Partners	-3413
▁capacity	-3414
▁changing	-3415
▁commonly	-3416
▁standard	-3417
▁Geography	-3418
▁discovery	-3419
▁estimates	-3420
▁Autonomous	-3421
-8	-3422
70	-3423
tr	-3424
▁→	-3425
NLP	-3426
box	-3427
eph	-3428
net	-3429
nia	-3430
opp	-3431
vin	-3432
wit	-3433
▁Gr	-3434
▁HT	-3435
/24)	-3436
What	-3437
eeks	-3438
face	-3439
gest	-3440
hold	-3441
most	-3442
roid	-3443
▁Bri	-3444
▁Com	-3445
▁Git	-3446
▁San	-3447
▁Sol	-3448
▁Vis	-3449
▁aim	-3450
▁ded	-3451
▁deg	-3452
▁mim	-3453
▁put	-3454
erved	-3455
iring	-3456
racle	-3457
▁1/25	-3458
▁Dist	-3459
▁Jobs	-3460
▁Last	-3461
▁Most	-3462
▁hard	-3463
▁phot	-3464
▁site	-3465
letter	-3466
▁2024,	-3467
▁Bloom	-3468
▁Brain	-3469
▁Class	-3470
▁Corre	-3471
▁David	-3472
▁Estim	-3473
▁Sales	-3474
▁Simon	-3475
inguish	-3476
▁Conver	-3477
▁Experi	-3478
▁Master	-3479
▁Months	-3480
▁Person	-3481
▁academ	-3482
▁policy	-3483
▁powers	-3484
▁second	-3485
ectively	-3486
ological	-3487
ophistic	-3488
▁(2023).	-3489
▁Convers	-3490
▁Digital	-3491
▁address	-3492
▁attempt	-3493
▁believe	-3494
▁compreh	-3495
▁creativ	-3496
▁diagnos	-3497
▁neurons	-3498
▁operate	-3499
▁rapidly	-3500
▁traffic	-3501
▁workers	-3502
▁writing	-3503
▁continue	-3504
▁enabling	-3505
▁symbolic	-3506
▁Tutorials	-3507
▁analyzing	-3508
▁Developers	-3509
▁intellectual	-3510
▁breakthroughs	-3511
3)	-3512
4:	-3513
An	-3514
To	-3515
ys	-3516
7).	-3517
mit	-3518
oad	-3519
▁38	-3520
▁Gl	-3521
gory	-3522
odes	-3523
ours	-3524
prem	-3525
▁Spr	-3526
▁cor	-3527
▁cur	-3528
▁dou	-3529
▁dra	-3530
▁mor	-3531
▁neg	-3532
ables	-3533
izont	-3534
tives	-3535
▁Cite	-3536
▁Full	-3537
▁Grad	-3538
▁Live	-3539
▁Poli	-3540
▁Writ	-3541
▁aren	-3542
▁hear	-3543
▁ones	-3544
Source	-3545
atives	-3546
ements	-3547
ension	-3548
ething	-3549
rating	-3550
▁2025.	-3551
▁Chris	-3552
▁Const	-3553
▁Robot	-3554
▁Super	-3555
▁claim	-3556
▁comes	-3557
▁daily	-3558
▁going	-3559
▁maxim	-3560
▁noted	-3561
▁quite	-3562
▁sched	-3563
ception	-3564
izontal	-3565
ousands	-3566
▁Oracle	-3567
▁handle	-3568
▁highly	-3569
▁mobile	-3570
▁seeing	-3571
▁Content	-3572
▁consist	-3573
▁correct	-3574
▁defined	-3575
▁experim	-3576
▁getting	-3577
▁identif	-3578
▁reports	-3579
▁version	-3580
▁Customer	-3581
▁Rollouts	-3582
▁humanity	-3583
▁opportun	-3584
▁Incumbent	-3585
▁Migration	-3586
▁Transform	-3587
▁providers	-3588
▁uncertain	-3589
▁Conference	-3590
▁creativity	-3591
▁performing	-3592
▁repetitive	-3593
echnological	-3594
▁Researchers	-3595
▁Specialized	-3596
▁manufacturing	-3597
▁professionals	-3598
2:	-3599
35	-3600
45	-3601
9–	-3602
AL	-3603
vid	-3604
▁Ka	-3605
aged	-3606
aken	-3607
cipl	-3608
crip	-3609
izes	-3610
uate	-3611
▁Act	-3612
▁Gen	-3613
▁HAI	-3614
▁Run	-3615
▁ask	-3616
▁cho	-3617
▁met	-3618
▁mus	-3619
tices	-3620
▁HTML	-3621
▁Oper	-3622
▁Uses	-3623
▁circ	-3624
▁feed	-3625
▁kill	-3626
▁near	-3627
▁prof	-3628
▁serv	-3629
though	-3630
urrent	-3631
▁India	-3632
▁Integ	-3633
▁JavaS	-3634
▁Tower	-3635
▁doing	-3636
▁ideas	-3637
▁kinds	-3638
▁means	-3639
riority	-3640
▁Assist	-3641
▁Please	-3642
▁Vertex	-3643
▁almost	-3644
▁assume	-3645
▁higher	-3646
▁secure	-3647
▁select	-3648
▁supply	-3649
▁AlphaGo	-3650
▁Animals	-3651
▁account	-3652
▁enhance	-3653
▁massive	-3654
▁project	-3655
ibilities	-3656
ographies	-3657
umulative	-3658
▁Advanced	-3659
▁Compiler	-3660
▁Decision	-3661
▁Question	-3662
▁delivery	-3663
▁document	-3664
▁optimize	-3665
▁rational	-3666
▁Bloomberg	-3667
▁Subscribe	-3668
▁abilities	-3669
▁responses	-3670
▁sophistic	-3671
▁workflows	-3672
▁Converging	-3673
▁JavaScript	-3674
▁Perplexity	-3675
▁predictive	-3676
▁scientific	-3677
▁Biographies	-3678
▁identifying	-3679
▁availability	-3680
▁Reinforcement	-3681
▁relationships	-3682
4)	-3683
4,	-3684
6)	-3685
8)	-3686
OP	-3687
5).	-3688
abs	-3689
fli	-3690
ler	-3691
rap	-3692
une	-3693
▁35	-3694
▁Vi	-3695
ared	-3696
camp	-3697
flix	-3698
ouse	-3699
rica	-3700
ront	-3701
sequ	-3702
▁Day	-3703
▁Saf	-3704
▁Ten	-3705
▁Tog	-3706
▁fre	-3707
▁her	-3708
▁mar	-3709
▁mig	-3710
▁mov	-3711
▁rac	-3712
eries	-3713
erman	-3714
inter	-3715
known	-3716
▁1980	-3717
▁2010	-3718
▁2012	-3719
▁Bank	-3720
▁Bost	-3721
▁Brow	-3722
▁Down	-3723
▁GATE	-3724
▁Like	-3725
▁Mack	-3726
▁Page	-3727
▁Prot	-3728
▁SaaS	-3729
▁Sing	-3730
▁Supp	-3731
▁book	-3732
▁hold	-3733
▁port	-3734
▁rate	-3735
▁sequ	-3736
luding	-3737
resent	-3738
rivate	-3739
utions	-3740
▁(2020	-3741
▁2023,	-3742
▁Black	-3743
▁Organ	-3744
▁Poole	-3745
▁Times	-3746
▁cyber	-3747
▁simul	-3748
cements	-3749
ecutive	-3750
science	-3751
solving	-3752
▁Fronti	-3753
▁Transl	-3754
▁always	-3755
▁assess	-3756
▁happen	-3757
▁needed	-3758
▁states	-3759
▁trends	-3760
inciples	-3761
initions	-3762
▁Environ	-3763
▁Netflix	-3764
▁nuclear	-3765
▁prompts	-3766
▁quality	-3767
▁becoming	-3768
▁solution	-3769
▁strategy	-3770
▁Mackworth	-3771
▁President	-3772
▁Wikipedia	-3773
▁something	-3774
▁everything	-3775
▁introduced	-3776
▁revolution	-3777
▁competition	-3778
▁specialized	-3779
▁implications	-3780
1)	-3781
67	-3782
ES	-3783
HP	-3784
IC	-3785
OL	-3786
ta	-3787
▁©	-3788
1).	-3789
AGI	-3790
bon	-3791
cle	-3792
lam	-3793
oms	-3794
▁3,	-3795
haps	-3796
icon	-3797
itig	-3798
pose	-3799
spec	-3800
ynam	-3801
▁Ele	-3802
▁Enh	-3803
▁Exp	-3804
▁Min	-3805
▁Sat	-3806
▁art	-3807
▁ill	-3808
allel	-3809
angle	-3810
ector	-3811
eline	-3812
eness	-3813
epend	-3814
human	-3815
insey	-3816
itary	-3817
lated	-3818
osion	-3819
otify	-3820
point	-3821
▁1995	-3822
▁Fact	-3823
▁Join	-3824
▁Prob	-3825
▁Skip	-3826
▁Text	-3827
▁Trad	-3828
▁area	-3829
▁evol	-3830
▁head	-3831
▁insp	-3832
Driven	-3833
Google	-3834
ercial	-3835
idence	-3836
ternal	-3837
▁Stand	-3838
▁Table	-3839
▁activ	-3840
▁basic	-3841
▁close	-3842
▁drive	-3843
▁labor	-3844
▁legal	-3845
▁mimic	-3846
▁minim	-3847
▁novel	-3848
▁offic	-3849
▁polic	-3850
▁theor	-3851
▁until	-3852
forward	-3853
▁Humans	-3854
▁Vision	-3855
▁easier	-3856
▁expand	-3857
▁instit	-3858
▁longer	-3859
▁prompt	-3860
▁reduce	-3861
ectivity	-3862
▁Improve	-3863
▁central	-3864
▁measure	-3865
▁reading	-3866
▁McKinsey	-3867
▁Personal	-3868
▁Planning	-3869
▁articles	-3870
▁partners	-3871
▁Represent	-3872
▁assistant	-3873
▁Innovation	-3874
▁conditions	-3875
▁historical	-3876
▁investment	-3877
▁parameters	-3878
ministration	-3879
▁Technologies	-3880
▁philosophers	-3881
▁Certification	-3882
▁Manufacturing	-3883
▁Infrastructure	-3884
17	-3885
9)	-3886
Bl	-3887
ER	-3888
va	-3889
▁×	-3890
Con	-3891
EEE	-3892
LLM	-3893
con	-3894
ees	-3895
eet	-3896
ils	-3897
ior	-3898
▁Fl	-3899
aced	-3900
duct	-3901
flow	-3902
hors	-3903
math	-3904
mers	-3905
omen	-3906
pass	-3907
tech	-3908
umes	-3909
▁50%	-3910
▁Bar	-3911
▁Kur	-3912
▁Lik	-3913
▁Mil	-3914
▁PHP	-3915
▁Sec	-3916
▁emp	-3917
▁low	-3918
▁sem	-3919
ained	-3920
alluc	-3921
cient	-3922
order	-3923
ranch	-3924
tters	-3925
▁Each	-3926
▁Fund	-3927
▁Game	-3928
▁Play	-3929
▁Podc	-3930
▁Pric	-3931
▁Type	-3932
▁Wall	-3933
▁lack	-3934
▁name	-3935
▁path	-3936
▁post	-3937
▁road	-3938
▁scal	-3939
▁tell	-3940
▁word	-3941
-4/25,	-3942
ounter	-3943
ulting	-3944
▁2019.	-3945
▁After	-3946
▁Books	-3947
▁Money	-3948
▁domin	-3949
▁light	-3950
▁overs	-3951
▁treat	-3952
tention	-3953
▁Daniel	-3954
▁Launch	-3955
▁adjust	-3956
▁annual	-3957
▁danger	-3958
▁embedd	-3959
▁exceed	-3960
▁hypoth	-3961
▁moving	-3962
▁observ	-3963
▁remark	-3964
▁Applied	-3965
▁Quickly	-3966
▁Release	-3967
▁Similar	-3968
▁Spotify	-3969
▁aspects	-3970
▁logical	-3971
▁partner	-3972
▁restric	-3973
▁special	-3974
▁thought	-3975
generated	-3976
▁Coursera	-3977
▁Students	-3978
▁appropri	-3979
▁champion	-3980
▁complete	-3981
▁everyday	-3982
▁forecast	-3983
▁produced	-3984
▁thinking	-3985
▁described	-3986
▁engineers	-3987
▁standards	-3988
▁thousands	-3989
▁Definition	-3990
▁additional	-3991
▁connection	-3992
▁perception	-3993
▁production	-3994
▁Encyclopedia	-3995
▁advancements	-3996
▁specifically	-3997
▁probabilistic	-3998
▁reinforcement	-3999
,’	-4000
09	-4001
11	-4002
60	-4003
AN	-4004
Qu	-4005
mo	-4006
200	-4007
RED	-4008
ael	-4009
ane	-4010
fus	-4011
ged	-4012
hib	-4013
rew	-4014
▁$3	-4015
▁00	-4016
▁Af	-4017
▁bo	-4018
▁gr	-4019
▁lo	-4020
ebel	-4021
enge	-4022
ibly	-4023
mark	-4024
rack	-4025
reet	-4026
ried	-4027
rome	-4028
tein	-4029
▁25,	-4030
▁Ast	-4031
▁Bib	-4032
▁Don	-4033
▁Kas	-4034
▁Mat	-4035
▁Ver	-4036
▁etc	-4037
▁jud	-4038
ludes	-4039
lying	-4040
▁Blog	-4041
▁PMID	-4042
▁Word	-4043
▁dise	-4044
▁easy	-4045
▁keep	-4046
▁live	-4047
▁shap	-4048
▁Incre	-4049
▁James	-4050
▁Labor	-4051
▁Level	-4052
▁bench	-4053
▁brows	-4054
▁links	-4055
▁maint	-4056
▁shift	-4057
▁speak	-4058
▁topic	-4059
▁Agents	-4060
▁Chrome	-4061
▁Goebel	-4062
▁Images	-4063
▁Mobile	-4064
▁Sensor	-4065
▁Unlike	-4066
▁easily	-4067
▁hidden	-4068
▁levels	-4069
▁necess	-4070
▁really	-4071
▁retail	-4072
specific	-4073
▁Careers	-4074
▁Migrate	-4075
▁capture	-4076
▁collect	-4077
▁disclos	-4078
▁effects	-4079
▁figures	-4080
▁focuses	-4081
▁greater	-4082
▁notable	-4083
▁prevent	-4084
▁usually	-4085
▁variety	-4086
▁Bayesian	-4087
▁Insights	-4088
▁Magazine	-4089
▁Politics	-4090
▁Priority	-4091
▁emerging	-4092
▁independ	-4093
▁released	-4094
▁transpar	-4095
▁Financial	-4096
▁certainly	-4097
▁expertise	-4098
▁generally	-4099
▁Cumulative	-4100
▁accessible	-4101
▁associated	-4102
▁complexity	-4103
▁Application	-4104
▁Environment	-4105
▁effectively	-4106
▁fundamental	-4107
▁theoretical	-4108
▁organization	-4109
▁unsupervised	-4110
▁conversational	-4111
▁misinformation	-4112
27	-4113
47	-4114
BE	-4115
ON	-4116
RA	-4117
ba	-4118
▁↑	-4119
-19	-4120
6).	-4121
8).	-4122
CRI	-4123
aur	-4124
def	-4125
dis	-4126
ico	-4127
iff	-4128
ung	-4129
use	-4130
uth	-4131
uts	-4132
▁37	-4133
▁ET	-4134
▁Pa	-4135
▁SE	-4136
▁SU	-4137
▁Ve	-4138
▁ge	-4139
Chat	-4140
even	-4141
hood	-4142
ians	-4143
ores	-4144
tian	-4145
▁Ber	-4146
▁Dem	-4147
▁End	-4148
▁Mer	-4149
▁Non	-4150
▁Pen	-4151
▁Red	-4152
▁Und	-4153
▁Way	-4154
▁bel	-4155
▁gov	-4156
▁iPh	-4157
▁tot	-4158
▁vis	-4159
acing	-4160
ampus	-4161
ancis	-4162
andom	-4163
arial	-4164
entic	-4165
ither	-4166
wards	-4167
▁Elon	-4168
▁IEEE	-4169
▁Seen	-4170
▁five	-4171
▁plan	-4172
▁prim	-4173
▁seem	-4174
▁side	-4175
▁thus	-4176
ennett	-4177
fusion	-4178
▁Audio	-4179
▁Based	-4180
▁Every	-4181
▁Graph	-4182
▁Intel	-4183
▁avoid	-4184
▁basis	-4185
▁bound	-4186
▁purch	-4187
▁shows	-4188
▁synth	-4189
allenge	-4190
areness	-4191
ceptron	-4192
▁German	-4193
▁Newell	-4194
▁Street	-4195
▁Survey	-4196
▁Toggle	-4197
▁define	-4198
▁divers	-4199
▁facial	-4200
▁moment	-4201
ructions	-4202
volution	-4203
▁Francis	-4204
▁Leaders	-4205
▁Limited	-4206
▁Powered	-4207
▁Quizzes	-4208
▁Updated	-4209
▁editors	-4210
▁powered	-4211
▁remains	-4212
▁Challeng	-4213
▁Document	-4214
▁Solution	-4215
▁academic	-4216
▁creative	-4217
▁engineer	-4218
▁Estimated	-4219
▁advantage	-4220
▁arguments	-4221
▁beginning	-4222
▁marketing	-4223
▁providing	-4224
▁published	-4225
▁supervised	-4226
▁efficiently	-4227
▁electricity	-4228
▁limitations	-4229
▁statistical	-4230
▁Accessibility	-4231
▁collaboration	-4232
▁philosophical	-4233
▁sophisticated	-4234
▁recommendation	-4235
3%	-4236
5–	-4237
90	-4238
Sh	-4239
Us	-4240
_{	-4241
aj	-4242
?".	-4243
aba	-4244
ids	-4245
orn	-4246
tig	-4247
ule	-4248
▁Cr	-4249
▁MC	-4250
bert	-4251
head	-4252
lama	-4253
lean	-4254
lick	-4255
rael	-4256
reme	-4257
uart	-4258
vier	-4259
▁(12	-4260
▁19,	-4261
▁Bec	-4262
▁Exc	-4263
▁Gre	-4264
▁Imp	-4265
▁Leg	-4266
▁Tik	-4267
▁day	-4268
▁del	-4269
▁dig	-4270
▁har	-4271
▁lot	-4272
▁old	-4273
▁wor	-4274
China	-4275
Query	-4276
alent	-4277
ibaba	-4278
igure	-4279
ising	-4280
ister	-4281
uling	-4282
uster	-4283
vidia	-4284
▁1960	-4285
▁Asia	-4286
▁Cash	-4287
▁Drey	-4288
▁Musk	-4289
▁Vari	-4290
▁base	-4291
▁dest	-4292
▁drug	-4293
▁face	-4294
▁fall	-4295
▁imag	-4296
▁laws	-4297
▁room	-4298
▁weap	-4299
▁week	-4300
aining	-4301
fessor	-4302
prises	-4303
▁Allen	-4304
▁Geoff	-4305
▁Print	-4306
▁Since	-4307
▁Study	-4308
▁earli	-4309
▁hours	-4310
▁influ	-4311
▁issue	-4312
▁music	-4313
▁neuro	-4314
▁never	-4315
▁press	-4316
▁senti	-4317
▁taken	-4318
ication	-4319
▁Expert	-4320
▁ProCon	-4321
▁Select	-4322
▁Stuart	-4323
▁Though	-4324
▁active	-4325
▁appear	-4326
▁behind	-4327
▁coding	-4328
▁having	-4329
▁iPhone	-4330
▁nature	-4331
▁points	-4332
▁regard	-4333
ployment	-4334
tainment	-4335
▁Caltech	-4336
▁Climate	-4337
▁Crevier	-4338
▁Dreyfus	-4339
▁Michael	-4340
▁Monthly	-4341
▁Testing	-4342
▁efforts	-4343
▁sensors	-4344
▁serious	-4345
▁written	-4346
▁Academic	-4347
▁European	-4348
▁Projects	-4349
▁Releases	-4350
▁Symbolic	-4351
▁activity	-4352
▁critical	-4353
▁launched	-4354
▁logicist	-4355
▁releases	-4356
▁simulate	-4357
▁continues	-4358
▁dangerous	-4359
▁generated	-4360
▁Correction	-4361
▁Horizontal	-4362
▁Industrial	-4363
▁Industries	-4364
▁Scientists	-4365
▁Understand	-4366
▁formalisms	-4367
▁interested	-4368
▁remarkable	-4369
▁Experiences	-4370
▁Mathematics	-4371
▁definitions	-4372
▁operational	-4373
▁responsible	-4374
▁conversation	-4375
▁instructions	-4376
▁Entertainment	-4377
▁Philosophical	-4378
▁announcements	-4379
18	-4380
2)	-4381
33	-4382
80	-4383
by	-4384
go	-4385
Hub	-4386
Net	-4387
Tok	-4388
alf	-4389
eer	-4390
get	-4391
iam	-4392
lec	-4393
ody	-4394
ony	-4395
ups	-4396
utm	-4397
▁4:	-4398
▁AC	-4399
▁Bo	-4400
▁Er	-4401
▁Hu	-4402
here	-4403
rame	-4404
vert	-4405
wise	-4406
▁(10	-4407
▁Ang	-4408
▁Bas	-4409
▁Era	-4410
▁Ess	-4411
▁Sem	-4412
▁tog	-4413
BSCRI	-4414
actly	-4415
aedia	-4416
alled	-4417
aware	-4418
eland	-4419
ember	-4420
inery	-4421
lines	-4422
netes	-4423
parov	-4424
▁(196	-4425
▁Disc	-4426
▁Gold	-4427
▁Poll	-4428
▁Prac	-4429
▁adop	-4430
▁boom	-4431
▁caus	-4432
▁doub	-4433
▁goes	-4434
▁perf	-4435
▁push	-4436
▁sent	-4437
Strong	-4438
eering	-4439
ribute	-4440
▁(2022	-4441
▁(2024	-4442
▁Focus	-4443
▁Kuber	-4444
▁Likes	-4445
▁Llama	-4446
▁Telco	-4447
▁artif	-4448
▁faces	-4449
▁numer	-4450
▁occur	-4451
▁teams	-4452
BSCRIBE	-4453
letters	-4454
premium	-4455
raction	-4456
trained	-4457
ularity	-4458
▁GitHub	-4459
▁Latest	-4460
▁Marvin	-4461
▁Narrow	-4462
▁Nvidia	-4463
▁People	-4464
▁TikTok	-4465
▁affect	-4466
▁biases	-4467
▁depend	-4468
▁effort	-4469
▁errors	-4470
▁player	-4471
▁taking	-4472
▁Alibaba	-4473
▁Ethical	-4474
▁Threats	-4475
▁Website	-4476
▁ancient	-4477
including	-4478
portation	-4479
riculture	-4480
▁Benefits	-4481
▁Kasparov	-4482
▁Material	-4483
▁Reactive	-4484
▁Springer	-4485
▁achieved	-4486
▁classify	-4487
▁informed	-4488
▁measures	-4489
▁millions	-4490
▁recently	-4491
▁together	-4492
▁websites	-4493
▁Christian	-4494
▁Cognitive	-4495
▁Copyright	-4496
▁Corporate	-4497
▁Diffusion	-4498
▁Marketing	-4499
▁SUBSCRIBE	-4500
▁connected	-4501
▁effective	-4502
▁explosion	-4503
▁expressed	-4504
▁practices	-4505
▁replicate	-4506
▁technique	-4507
▁Kubernetes	-4508
▁Structures	-4509
▁accelerate	-4510
▁deployment	-4511
▁governance	-4512
▁monitoring	-4513
▁multimodal	-4514
▁algorithmic	-4515
▁individuals	-4516
▁Productivity	-4517
▁Unsupervised	-4518
▁Modernization	-4519
2–	-4520
7)	-4521
DB	-4522
RL	-4523
be	-4524
ka	-4525
ya	-4526
PUs	-4527
bre	-4528
eld	-4529
idh	-4530
isf	-4531
▁$5	-4532
▁,”	-4533
▁1:	-4534
▁60	-4535
▁Of	-4536
▁VM	-4537
Data	-4538
airs	-4539
arry	-4540
down	-4541
eady	-4542
ells	-4543
erve	-4544
fici	-4545
mann	-4546
prop	-4547
roll	-4548
rote	-4549
ruit	-4550
▁500	-4551
▁AIs	-4552
▁Aff	-4553
▁BBC	-4554
▁Pit	-4555
▁Tim	-4556
▁Two	-4557
▁Wal	-4558
▁est	-4559
▁loc	-4560
▁try	-4561
Based	-4562
antly	-4563
asses	-4564
ength	-4565
first	-4566
ician	-4567
istry	-4568
light	-4569
usive	-4570
▁$100	-4571
▁1956	-4572
▁5/24	-4573
▁Imag	-4574
▁Intu	-4575
▁Need	-4576
▁Star	-4577
▁Than	-4578
▁Very	-4579
▁agre	-4580
▁beat	-4581
▁exec	-4582
▁foll	-4583
▁late	-4584
▁unit	-4585
achine	-4586
anging	-4587
atters	-4588
opping	-4589
rowing	-4590
▁Canva	-4591
▁Peter	-4592
▁Telec	-4593
▁Union	-4594
▁carry	-4595
▁child	-4596
▁deepf	-4597
▁final	-4598
▁mitig	-4599
▁prior	-4600
▁third	-4601
▁wrote	-4602
playing	-4603
unction	-4604
▁Browse	-4605
▁Linked	-4606
▁Safety	-4607
▁SpaceX	-4608
▁Visual	-4609
▁belief	-4610
▁biased	-4611
▁compar	-4612
▁survey	-4613
inations	-4614
▁Centers	-4615
▁Commons	-4616
▁Figures	-4617
▁Respons	-4618
▁federal	-4619
▁helpful	-4620
▁however	-4621
▁initial	-4622
▁protect	-4623
▁reality	-4624
criptions	-4625
▁Although	-4626
▁Bootcamp	-4627
▁Citation	-4628
▁Geoffrey	-4629
▁Techniqu	-4630
▁creation	-4631
▁directly	-4632
▁fairness	-4633
▁followed	-4634
▁handwrit	-4635
▁managing	-4636
▁national	-4637
▁navigate	-4638
▁overview	-4639
▁proposed	-4640
▁reactive	-4641
▁valuable	-4642
▁Assistant	-4643
▁Databases	-4644
▁Frontiers	-4645
▁determine	-4646
▁developer	-4647
▁discussed	-4648
▁entertain	-4649
▁estimated	-4650
▁extensive	-4651
▁producing	-4652
▁sometimes	-4653
intelligent	-4654
▁Automation	-4655
▁Supervised	-4656
▁categories	-4657
▁simulation	-4658
▁appropriate	-4659
ustainability	-4660
▁institutions	-4661
▁Encyclopaedia	-4662
▁automatically	-4663
▁opportunities	-4664
7–	-4665
ae	-4666
ск	-4667
▁−	-4668
LOP	-4669
bit	-4670
emb	-4671
eum	-4672
inu	-4673
iod	-4674
ror	-4675
tun	-4676
zwe	-4677
}\)	-4678
▁43	-4679
▁59	-4680
▁6.	-4681
▁Az	-4682
▁CO	-4683
▁GK	-4684
▁Id	-4685
▁cr	-4686
▁ul	-4687
adig	-4688
amer	-4689
ayer	-4690
code	-4691
efit	-4692
eled	-4693
enty	-4694
ster	-4695
▁Arg	-4696
▁Her	-4697
▁Mid	-4698
▁Who	-4699
▁che	-4700
▁opp	-4701
▁won	-4702
arily	-4703
eekly	-4704
elves	-4705
ender	-4706
ittee	-4707
ittle	-4708
zweil	-4709
▁8/23	-4710
▁Auto	-4711
▁Case	-4712
▁East	-4713
▁Guid	-4714
▁Just	-4715
▁Schm	-4716
▁Team	-4717
▁argu	-4718
▁away	-4719
▁bott	-4720
▁draw	-4721
▁fuel	-4722
▁glob	-4723
▁rely	-4724
▁spot	-4725
▁talk	-4726
▁upon	-4727
ablish	-4728
alking	-4729
etical	-4730
liance	-4731
▁(1993	-4732
▁2022,	-4733
▁Early	-4734
▁Liter	-4735
▁Login	-4736
▁North	-4737
▁Optim	-4738
▁Words	-4739
▁excel	-4740
▁later	-4741
▁local	-4742
▁moral	-4743
▁nodes	-4744
▁shape	-4745
▁total	-4746
▁trial	-4747
▁truth	-4748
▁ultim	-4749
agation	-4750
ailable	-4751
emantic	-4752
oration	-4753
ossible	-4754
related	-4755
▁Strong	-4756
▁choose	-4757
▁degree	-4758
▁driven	-4759
▁logics	-4760
▁period	-4761
▁remain	-4762
▁school	-4763
▁tokens	-4764
▁Acceler	-4765
▁Android	-4766
▁College	-4767
▁Proceed	-4768
▁Strateg	-4769
▁Studies	-4770
▁discipl	-4771
▁explain	-4772
▁finding	-4773
▁follows	-4774
▁involve	-4775
▁monthly	-4776
▁patient	-4777
▁perhaps	-4778
▁possess	-4779
▁replace	-4780
▁robotic	-4781
▁underst	-4782
▁Building	-4783
▁Graduate	-4784
▁Kurzweil	-4785
▁Podcasts	-4786
▁adoption	-4787
▁allowing	-4788
▁anything	-4789
▁category	-4790
▁consumer	-4791
▁economic	-4792
▁emotions	-4793
▁improved	-4794
▁medicine	-4795
▁provided	-4796
▁reported	-4797
▁Automated	-4798
▁concerned	-4799
▁container	-4800
▁essential	-4801
▁materials	-4802
▁scientist	-4803
▁automating	-4804
▁eventually	-4805
▁mechanisms	-4806
▁psychology	-4807
▁represents	-4808
▁statistics	-4809
▁Newsletters	-4810
▁innovations	-4811
▁interaction	-4812
▁recognizing	-4813
▁foundational	-4814
▁improvements	-4815
▁intervention	-4816
▁professional	-4817
▁transforming	-4818
▁Cybersecurity	-4819
▁Probabilistic	-4820
▁cybersecurity	-4821
▁technological	-4822
4–	-4823
?”	-4824
AQ	-4825
EN	-4826
LI	-4827
OS	-4828
PA	-4829
▁#	-4830
-3.	-4831
2).	-4832
ALL	-4833
App	-4834
aff	-4835
ago	-4836
cer	-4837
dom	-4838
ena	-4839
equ	-4840
fit	-4841
ira	-4842
lin	-4843
ney	-4844
ses	-4845
▁2:	-4846
▁39	-4847
▁WI	-4848
▁sw	-4849
▁vi	-4850
1:25	-4851
aker	-4852
amed	-4853
ardy	-4854
avec	-4855
cape	-4856
edge	-4857
self	-4858
such	-4859
▁1/1	-4860
▁GKE	-4861
▁ISO	-4862
▁Lat	-4863
▁Pal	-4864
▁Ref	-4865
▁Rem	-4866
▁Unc	-4867
▁Yum	-4868
▁aug	-4869
▁pay	-4870
engio	-4871
eving	-4872
riend	-4873
tures	-4874
veill	-4875
where	-4876
▁2011	-4877
▁6/24	-4878
▁Even	-4879
▁Fire	-4880
▁Gene	-4881
▁Jeop	-4882
▁Mass	-4883
▁Menu	-4884
▁Rank	-4885
▁Take	-4886
▁acqu	-4887
▁gets	-4888
▁give	-4889
▁meet	-4890
▁note	-4891
▁poli	-4892
▁resh	-4893
▁rich	-4894
▁scen	-4895
▁sure	-4896
▁symb	-4897
▁weak	-4898
elling	-4899
rammar	-4900
rucial	-4901
undred	-4902
▁Legal	-4903
▁Local	-4904
▁Style	-4905
▁Think	-4906
▁along	-4907
▁chain	-4908
▁dynam	-4909
▁exhib	-4910
▁firms	-4911
▁proof	-4912
▁seems	-4913
▁sound	-4914
▁stage	-4915
▁takes	-4916
▁unlab	-4917
mathcal	-4918
▁Africa	-4919
▁Office	-4920
▁Rights	-4921
▁amount	-4922
▁beings	-4923
▁formul	-4924
▁matter	-4925
▁object	-4926
▁return	-4927
missions	-4928
▁Bostrom	-4929
▁Defense	-4930
▁Moravec	-4931
▁Schmidh	-4932
▁animals	-4933
▁benefit	-4934
▁climate	-4935
▁consequ	-4936
▁counter	-4937
▁desktop	-4938
▁despite	-4939
▁diverse	-4940
▁engines	-4941
▁exactly	-4942
▁explore	-4943
▁journal	-4944
▁perfect	-4945
▁players	-4946
▁readers	-4947
▁reflect	-4948
▁testing	-4949
veillance	-4950
▁Behavior	-4951
▁LinkedIn	-4952
▁Problems	-4953
▁Released	-4954
▁embedded	-4955
▁parallel	-4956
▁reducing	-4957
▁reliable	-4958
▁teaching	-4959
▁According	-4960
▁Framework	-4961
▁Francisco	-4962
▁Standards	-4963
▁Foundation	-4964
▁Statistics	-4965
▁difference	-4966
▁generating	-4967
▁identified	-4968
▁integrated	-4969
▁newsletter	-4970
▁Proceedings	-4971
▁enterprises	-4972
▁mathematics	-4973
▁possibility	-4974
▁Understanding	-4975
▁entertainment	-4976
▁classification	-4977
3:	-4978
86	-4979
CE	-4980
DA	-4981
DN	-4982
NI	-4983
PS	-4984
Py	-4985
RR	-4986
SS	-4987
ma	-4988
ua	-4989
öd	-4990
Cun	-4991
ada	-4992
ags	-4993
bar	-4994
eff	-4995
enc	-4996
ero	-4997
gen	-4998
ray	-4999
rup	-5000
udi	-5001
usp	-5002
▁8.	-5003
▁Av	-5004
▁Hy	-5005
▁Ro	-5006
▁ep	-5007
alse	-5008
ault	-5009
duck	-5010
exts	-5011
ifor	-5012
ivil	-5013
ixed	-5014
raft	-5015
room	-5016
wide	-5017
▁14,	-5018
▁Alt	-5019
▁MCQ	-5020
▁bar	-5021
▁cat	-5022
▁lic	-5023
▁mal	-5024
▁mid	-5025
▁red	-5026
▁sel	-5027
▁str	-5028
▁tel	-5029
▁tem	-5030
agram	-5031
aming	-5032
ensus	-5033
etary	-5034
icago	-5035
ients	-5036
iliar	-5037
ively	-5038
lands	-5039
▁1997	-5040
▁2/24	-5041
▁2013	-5042
▁Cook	-5043
▁Form	-5044
▁Make	-5045
▁Node	-5046
▁Pers	-5047
▁abst	-5048
▁cash	-5049
▁doct	-5050
▁dram	-5051
▁home	-5052
▁libr	-5053
▁line	-5054
▁pace	-5055
chools	-5056
enture	-5057
icated	-5058
orduck	-5059
ugging	-5060
▁12/23	-5061
▁2015.	-5062
▁Azure	-5063
▁Basic	-5064
▁Music	-5065
▁South	-5066
▁State	-5067
▁Teach	-5068
▁WIRED	-5069
▁bring	-5070
▁check	-5071
▁chips	-5072
▁cycle	-5073
▁pages	-5074
▁parts	-5075
▁table	-5076
▁thems	-5077
▁thing	-5078
▁watch	-5079
ChatGPT	-5080
artment	-5081
ifornia	-5082
jective	-5083
ounding	-5084
rontier	-5085
▁(2/25)	-5086
▁(2015)	-5087
▁Campus	-5088
▁Deploy	-5089
▁Editor	-5090
▁Memory	-5091
▁Museum	-5092
▁Prepar	-5093
▁Sector	-5094
▁accomp	-5095
▁author	-5096
▁decade	-5097
▁distin	-5098
▁figure	-5099
▁threat	-5100
computer	-5101
▁Connect	-5102
▁Dennett	-5103
▁Medical	-5104
▁Nations	-5105
▁Solving	-5106
▁broader	-5107
▁century	-5108
▁crucial	-5109
▁earlier	-5110
▁emotion	-5111
▁numbers	-5112
▁stories	-5113
▁surpass	-5114
▁threats	-5115
itionally	-5116
▁Featured	-5117
▁Jeopardy	-5118
▁agencies	-5119
▁billions	-5120
▁calculus	-5121
▁describe	-5122
▁evaluate	-5123
▁improves	-5124
▁maximize	-5125
▁modeling	-5126
▁Advertise	-5127
▁Languages	-5128
▁McCorduck	-5129
▁Recommend	-5130
▁constrain	-5131
▁consumers	-5132
▁economics	-5133
▁ecosystem	-5134
▁interface	-5135
▁situation	-5136
▁synthesis	-5137
▁workforce	-5138
propagation	-5139
▁Annualized	-5140
▁California	-5141
▁Generation	-5142
▁Profession	-5143
▁References	-5144
▁Techniques	-5145
▁collection	-5146
▁discussion	-5147
▁prediction	-5148
▁previously	-5149
▁themselves	-5150
▁Distributed	-5151
▁Recognition	-5152
▁Translation	-5153
▁competitive	-5154
▁distinguish	-5155
▁governments	-5156
▁potentially	-5157
▁regulations	-5158
▁suggestions	-5159
▁accelerating	-5160
▁transparency	-5161
▁administration	-5162
37	-5163
44	-5164
8%	-5165
EA	-5166
On	-5167
VA	-5168
ck	-5169
ez	-5170
xi	-5171
1),	-5172
4).	-5173
aks	-5174
aut	-5175
esc	-5176
osp	-5177
uge	-5178
vie	-5179
▁$2	-5180
▁5,	-5181
▁CN	-5182
▁EU	-5183
▁IN	-5184
▁Lo	-5185
▁Sw	-5186
▁\[	-5187
▁\]	-5188
▁ai	-5189
▁ir	-5190
▁tw	-5191
Comp	-5192
Deep	-5193
LLMs	-5194
ache	-5195
ails	-5196
anel	-5197
avor	-5198
baum	-5199
eats	-5200
eves	-5201
grad	-5202
ison	-5203
medi	-5204
pond	-5205
urch	-5206
▁400	-5207
▁Cat	-5208
▁Deb	-5209
▁Dom	-5210
▁FAQ	-5211
▁Fac	-5212
▁Hal	-5213
▁Its	-5214
▁Lee	-5215
▁Let	-5216
▁Mas	-5217
▁Ray	-5218
▁Ros	-5219
▁URL	-5220
▁den	-5221
▁der	-5222
▁eds	-5223
▁era	-5224
▁flo	-5225
▁him	-5226
▁imm	-5227
▁mag	-5228
▁rob	-5229
▁uns	-5230
-2025	-5231
/24),	-5232
apers	-5233
arian	-5234
board	-5235
enior	-5236
ermin	-5237
estig	-5238
kings	-5239
otive	-5240
river	-5241
rones	-5242
strap	-5243
▁$300	-5244
▁1/24	-5245
▁100%	-5246
▁1970	-5247
▁3/24	-5248
▁9/24	-5249
▁Bias	-5250
▁Ever	-5251
▁Feed	-5252
▁Kids	-5253
▁Line	-5254
▁List	-5255
▁Loss	-5256
▁Math	-5257
▁Midj	-5258
▁Phot	-5259
▁Requ	-5260
▁Wash	-5261
▁Zoom	-5262
▁edge	-5263
▁mark	-5264
▁pred	-5265
▁roll	-5266
▁rout	-5267
▁scre	-5268
▁soon	-5269
▁wave	-5270
greSQL	-5271
icious	-5272
native	-5273
ormous	-5274
ossary	-5275
▁2016.	-5276
▁5/25)	-5277
▁Click	-5278
▁Count	-5279
▁Creat	-5280
▁Garry	-5281
▁GenAI	-5282
▁Multi	-5283
▁Order	-5284
▁React	-5285
▁agree	-5286
▁corre	-5287
▁lingu	-5288
▁liter	-5289
▁minds	-5290
▁moves	-5291
▁stack	-5292
▁style	-5293
▁subst	-5294
▁suite	-5295
▁whose	-5296
▁wrong	-5297
Enabled	-5298
alities	-5299
itizens	-5300
process	-5301
respond	-5302
riendly	-5303
tically	-5304
▁Consum	-5305
▁Israel	-5306
▁Making	-5307
▁Method	-5308
▁Tokens	-5309
▁Trends	-5310
▁actors	-5311
▁former	-5312
▁groups	-5313
▁illust	-5314
▁indeed	-5315
▁mental	-5316
▁stages	-5317
▁summar	-5318
▁trying	-5319
▁Chicago	-5320
▁Desktop	-5321
▁Despite	-5322
▁Editors	-5323
▁Instead	-5324
▁Pollock	-5325
▁Special	-5326
▁augment	-5327
▁authors	-5328
▁browser	-5329
▁complic	-5330
▁cutting	-5331
▁edition	-5332
▁impress	-5333
▁mission	-5334
▁options	-5335
▁percent	-5336
▁vehicle	-5337
▁volumes	-5338
isfaction	-5339
▁Collabor	-5340
▁Download	-5341
▁Emerging	-5342
▁Trending	-5343
▁diseases	-5344
▁enormous	-5345
▁frontier	-5346
▁investig	-5347
▁position	-5348
volutional	-5349
▁Americans	-5350
▁Brookings	-5351
▁Ecosystem	-5352
▁Instagram	-5353
▁Materials	-5354
▁according	-5355
▁announced	-5356
▁artifacts	-5357
▁databases	-5358
▁documents	-5359
▁strategic	-5360
▁variables	-5361
▁Additional	-5362
▁Leadership	-5363
▁Midjourney	-5364
▁PostgreSQL	-5365
▁Serverless	-5366
▁accomplish	-5367
▁commercial	-5368
▁components	-5369
▁correspond	-5370
▁experiment	-5371
▁explicitly	-5372
▁frameworks	-5373
▁predicting	-5374
▁regulation	-5375
▁scheduling	-5376
▁Schmidhuber	-5377
▁disclosures	-5378
▁Evolutionary	-5379
▁Optimization	-5380
▁consequences	-5381
▁developments	-5382
▁implementation	-5383
,"	-5384
-2	-5385
-9	-5386
31	-5387
65	-5388
68	-5389
EC	-5390
TI	-5391
2),	-5392
ask	-5393
ban	-5394
eta	-5395
ger	-5396
han	-5397
ief	-5398
lar	-5399
tes	-5400
web	-5401
wen	-5402
www	-5403
▁(6	-5404
▁(7	-5405
▁44	-5406
▁45	-5407
▁5.	-5408
▁98	-5409
▁99	-5410
▁Ob	-5411
▁PC	-5412
▁jo	-5413
auti	-5414
aves	-5415
come	-5416
cons	-5417
egin	-5418
elta	-5419
onic	-5420
thur	-5421
year	-5422
zero	-5423
▁$50	-5424
▁13,	-5425
▁365	-5426
▁Air	-5427
▁Dou	-5428
▁Eff	-5429
▁Göd	-5430
▁Iss	-5431
▁Jos	-5432
▁Mon	-5433
▁SEP	-5434
▁Sug	-5435
▁ast	-5436
▁bit	-5437
▁net	-5438
▁sat	-5439
▁saw	-5440
▁unf	-5441
Geeks	-5442
inent	-5443
itate	-5444
learn	-5445
▁1016	-5446
▁Bill	-5447
▁Core	-5448
▁Cred	-5449
▁Entr	-5450
▁Gall	-5451
▁Hand	-5452
▁Maps	-5453
▁Nest	-5454
▁Paul	-5455
▁Qwen	-5456
▁Such	-5457
▁Talk	-5458
▁came	-5459
▁chip	-5460
▁date	-5461
▁flow	-5462
▁host	-5463
▁huge	-5464
▁land	-5465
▁math	-5466
▁slow	-5467
▁tack	-5468
ainers	-5469
ardian	-5470
atures	-5471
enomen	-5472
entice	-5473
formed	-5474
ifying	-5475
itable	-5476
itness	-5477
netics	-5478
ollars	-5479
rought	-5480
ulated	-5481
urning	-5482
witter	-5483
▁11/24	-5484
▁2000,	-5485
▁2016,	-5486
▁Begin	-5487
▁Block	-5488
▁Brian	-5489
▁Geeks	-5490
▁Group	-5491
▁LeCun	-5492
▁Moore	-5493
▁Where	-5494
▁Works	-5495
▁align	-5496
▁assum	-5497
▁below	-5498
▁discr	-5499
▁force	-5500
▁gives	-5501
▁lever	-5502
▁manip	-5503
▁pursu	-5504
▁spend	-5505
▁store	-5506
▁white	-5507
atively	-5508
cedures	-5509
ensions	-5510
entials	-5511
iminate	-5512
omingos	-5513
undreds	-5514
urgence	-5515
▁(1/25)	-5516
▁Advers	-5517
▁Apache	-5518
▁Arthur	-5519
▁Bengio	-5520
▁Brooks	-5521
▁Direct	-5522
▁Europe	-5523
▁Manage	-5524
▁Mental	-5525
▁Predic	-5526
▁Propos	-5527
▁Russia	-5528
▁Visits	-5529
▁advers	-5530
▁carbon	-5531
▁confir	-5532
▁credit	-5533
▁debate	-5534
▁encomp	-5535
▁ground	-5536
▁milest	-5537
▁photos	-5538
▁unlock	-5539
andscape	-5540
fficient	-5541
pectives	-5542
▁(2019).	-5543
▁Another	-5544
▁Bibcode	-5545
▁Biology	-5546
▁Control	-5547
▁Current	-5548
▁Germany	-5549
▁Numbers	-5550
▁Through	-5551
▁Whether	-5552
▁autonom	-5553
▁banking	-5554
▁covered	-5555
▁creates	-5556
▁harmful	-5557
▁optimal	-5558
▁overall	-5559
▁reasons	-5560
▁sectors	-5561
itectures	-5562
▁Chatbots	-5563
▁Congress	-5564
▁Database	-5565
▁Entrants	-5566
▁Practice	-5567
▁Prentice	-5568
▁Response	-5569
▁approxim	-5570
▁archived	-5571
▁deployed	-5572
▁entirely	-5573
▁internal	-5574
▁numerous	-5575
▁remember	-5576
▁trillion	-5577
▁Bootstrap	-5578
▁Community	-5579
▁Editorial	-5580
▁cognition	-5581
▁contribut	-5582
▁corporate	-5583
▁deploying	-5584
▁necessary	-5585
▁practical	-5586
▁presented	-5587
▁realistic	-5588
▁unlabeled	-5589
ublications	-5590
▁Regulation	-5591
▁continuous	-5592
▁impossible	-5593
▁structures	-5594
▁Compounding	-5595
▁complicated	-5596
▁incorporate	-5597
▁investments	-5598
computational	-5599
▁hypothetical	-5600
▁successfully	-5601
▁Conversations	-5602
▁conversations	-5603
▁propositional	-5604
GB	-5605
cr	-5606
nd	-5607
uy	-5608
ür	-5609
50%	-5610
9),	-5611
Why	-5612
add	-5613
did	-5614
ict	-5615
ida	-5616
omb	-5617
raz	-5618
rig	-5619
wan	-5620
▁$4	-5621
▁4,	-5622
▁80	-5623
▁BI	-5624
▁CA	-5625
▁Du	-5626
▁Ko	-5627
▁La	-5628
▁NJ	-5629
▁TV	-5630
▁].	-5631
▁aw	-5632
▁gl	-5633
This	-5634
aven	-5635
brid	-5636
comm	-5637
erge	-5638
ipit	-5639
more	-5640
oder	-5641
omed	-5642
otes	-5643
well	-5644
▁120	-5645
▁25%	-5646
▁300	-5647
▁5/1	-5648
▁75%	-5649
▁ACM	-5650
▁Ara	-5651
▁CRA	-5652
▁Emp	-5653
▁Equ	-5654
▁Ext	-5655
▁Hyp	-5656
▁Lab	-5657
▁Max	-5658
▁Pop	-5659
▁Sil	-5660
▁Yes	-5661
▁aid	-5662
▁bad	-5663
▁fly	-5664
▁ing	-5665
Black	-5666
Delta	-5667
Gener	-5668
Scale	-5669
alism	-5670
alyst	-5671
antir	-5672
apter	-5673
books	-5674
eated	-5675
going	-5676
illed	-5677
ivity	-5678
onent	-5679
ooker	-5680
ordin	-5681
pense	-5682
vings	-5683
▁2005	-5684
▁4/24	-5685
▁7/24	-5686
▁8/24	-5687
▁Circ	-5688
▁Conf	-5689
▁DALL	-5690
▁Ford	-5691
▁Four	-5692
▁Head	-5693
▁Only	-5694
▁Pand	-5695
▁Prom	-5696
▁Rich	-5697
▁Rose	-5698
▁Thom	-5699
▁Yosh	-5700
▁anim	-5701
▁anti	-5702
▁fake	-5703
▁firm	-5704
▁iter	-5705
▁menu	-5706
▁phys	-5707
▁pion	-5708
▁podc	-5709
▁prep	-5710
▁prop	-5711
▁shif	-5712
▁susp	-5713
▁vary	-5714
▁viol	-5715
▁zero	-5716
coming	-5717
enbaum	-5718
idents	-5719
ington	-5720
ipment	-5721
lights	-5722
stream	-5723
tition	-5724
uation	-5725
urance	-5726
▁2012,	-5727
▁Excel	-5728
▁Exist	-5729
▁Huang	-5730
▁Light	-5731
▁Store	-5732
▁Waymo	-5733
▁Yipit	-5734
▁ahead	-5735
▁asked	-5736
▁deduc	-5737
▁expon	-5738
▁facts	-5739
▁false	-5740
▁forms	-5741
▁graph	-5742
▁heart	-5743
▁movie	-5744
▁neigh	-5745
▁posts	-5746
▁sales	-5747
▁serve	-5748
▁steps	-5749
▁touch	-5750
▁trade	-5751
▁trend	-5752
▁water	-5753
▁worth	-5754
ductive	-5755
ebrates	-5756
entally	-5757
ultural	-5758
▁(2020)	-5759
▁2015).	-5760
▁Agency	-5761
▁Altman	-5762
▁Better	-5763
▁Career	-5764
▁Closed	-5765
▁Stable	-5766
▁Stream	-5767
▁advent	-5768
▁aspect	-5769
▁bottom	-5770
▁brings	-5771
▁candid	-5772
▁coined	-5773
▁conven	-5774
▁driver	-5775
▁effect	-5776
▁labels	-5777
▁little	-5778
▁manner	-5779
▁member	-5780
▁random	-5781
▁server	-5782
▁spread	-5783
entioned	-5784
iconduct	-5785
ustering	-5786
▁Central	-5787
▁Details	-5788
▁Feature	-5789
▁Hugging	-5790
▁Managed	-5791
▁Pattern	-5792
▁Private	-5793
▁Publish	-5794
▁Summary	-5795
▁William	-5796
▁biggest	-5797
▁closely	-5798
▁country	-5799
▁dataset	-5800
▁desired	-5801
▁extract	-5802
▁impacts	-5803
▁largest	-5804
▁podcast	-5805
▁protein	-5806
▁quarter	-5807
▁receive	-5808
▁release	-5809
▁summary	-5810
▁updates	-5811
ictionary	-5812
▁Advertis	-5813
▁Domingos	-5814
▁External	-5815
▁Glossary	-5816
▁Palantir	-5817
▁attempts	-5818
▁autonomy	-5819
▁consists	-5820
▁everyone	-5821
▁evidence	-5822
▁exciting	-5823
▁expected	-5824
▁inspired	-5825
▁involved	-5826
▁property	-5827
▁referred	-5828
▁reserved	-5829
▁sciences	-5830
▁Committee	-5831
▁Executive	-5832
▁Intuition	-5833
▁Professor	-5834
▁Recurring	-5835
▁YipitData	-5836
▁achieving	-5837
▁answering	-5838
▁describes	-5839
▁emissions	-5840
▁establish	-5841
▁expensive	-5842
▁generates	-5843
▁landscape	-5844
▁operating	-5845
▁otherwise	-5846
▁retrieved	-5847
▁statement	-5848
▁workplace	-5849
otechnology	-5850
▁Consulting	-5851
▁Containers	-5852
▁Department	-5853
▁Investment	-5854
▁Perception	-5855
▁Principles	-5856
▁Salesforce	-5857
▁Similarweb	-5858
▁Washington	-5859
▁britannica	-5860
▁generators	-5861
▁Communities	-5862
▁Computation	-5863
▁Preparation	-5864
▁consumption	-5865
▁description	-5866
▁Transformers	-5867
▁dramatically	-5868
▁surveillance	-5869
▁comprehensive	-5870
▁containerized	-5871
▁environmental	-5872
▁international	-5873
▁probabilities	-5874
▁Representation	-5875
▁transportation	-5876
2-	-5877
74	-5878
As	-5879
CL	-5880
JS	-5881
OR	-5882
SP	-5883
\(	-5884
bi	-5885
dd	-5886
▁§	-5887
0).	-5888
Gen	-5889
OND	-5890
ald	-5891
cre	-5892
eds	-5893
esh	-5894
ker	-5895
mem	-5896
que	-5897
rec	-5898
rix	-5899
rum	-5900
val	-5901
▁(8	-5902
▁47	-5903
▁58	-5904
▁70	-5905
▁9.	-5906
▁DO	-5907
▁Tw	-5908
▁Ur	-5909
▁hy	-5910
▁js	-5911
Fold	-5912
Tech	-5913
aidu	-5914
conn	-5915
from	-5916
iant	-5917
irty	-5918
loud	-5919
mart	-5920
ocks	-5921
omet	-5922
oper	-5923
riam	-5924
rose	-5925
term	-5926
tish	-5927
vind	-5928
with	-5929
work	-5930
▁(11	-5931
▁23,	-5932
▁24,	-5933
▁Att	-5934
▁Cor	-5935
▁Deg	-5936
▁Est	-5937
▁ITU	-5938
▁Mal	-5939
▁RSS	-5940
▁Slo	-5941
▁Vin	-5942
▁Vol	-5943
▁bps	-5944
▁bur	-5945
▁gap	-5946
▁got	-5947
▁mod	-5948
▁mur	-5949
▁sam	-5950
▁she	-5951
▁tim	-5952
▁von	-5953
akers	-5954
check	-5955
enced	-5956
ephen	-5957
espre	-5958
ested	-5959
exual	-5960
fully	-5961
iddle	-5962
oints	-5963
ondon	-5964
plify	-5965
space	-5966
uters	-5967
utter	-5968
which	-5969
▁(195	-5970
▁(197	-5971
▁2007	-5972
▁2026	-5973
▁BOND	-5974
▁Chem	-5975
▁Geor	-5976
▁Iran	-5977
▁King	-5978
▁Plan	-5979
▁Port	-5980
▁Poss	-5981
▁Rest	-5982
▁Risk	-5983
▁Role	-5984
▁Valu	-5985
▁Weak	-5986
▁Webb	-5987
▁Wind	-5988
▁aims	-5989
▁cats	-5990
▁clin	-5991
▁driv	-5992
▁excl	-5993
▁flex	-5994
▁hide	-5995
▁loss	-5996
▁reve	-5997
▁safe	-5998
▁sett	-5999
▁size	-6000
▁stri	-6001
angers	-6002
enance	-6003
igning	-6004
langle	-6005
mitted	-6006
rangle	-6007
rative	-6008
readth	-6009
rovers	-6010
tified	-6011
▁10/24	-6012
▁1016/	-6013
▁Could	-6014
▁Cyber	-6015
▁Final	-6016
▁Magic	-6017
▁MySQL	-6018
▁Pitts	-6019
▁Quick	-6020
▁Risks	-6021
▁Scale	-6022
▁Still	-6023
▁Thank	-6024
▁Theor	-6025
▁alike	-6026
▁aware	-6027
▁chart	-6028
▁emerg	-6029
▁frequ	-6030
▁holds	-6031
▁inher	-6032
▁money	-6033
▁place	-6034
▁price	-6035
▁print	-6036
▁quick	-6037
▁track	-6038
▁truly	-6039
▁valid	-6040
Schools	-6041
autiful	-6042
entions	-6043
espread	-6044
itarian	-6045
ogicist	-6046
pective	-6047
plement	-6048
quality	-6049
rations	-6050
▁Announ	-6051
▁Behind	-6052
▁Canada	-6053
▁Coding	-6054
▁Edward	-6055
▁Identi	-6056
▁Impact	-6057
▁London	-6058
▁Nether	-6059
▁Pandas	-6060
▁Recent	-6061
▁Series	-6062
▁Termin	-6063
▁Things	-6064
▁Weekly	-6065
▁anyone	-6066
▁cancer	-6067
▁career	-6068
▁circum	-6069
▁claims	-6070
▁commit	-6071
▁filter	-6072
▁halluc	-6073
▁helped	-6074
▁immedi	-6075
▁indist	-6076
▁living	-6077
▁manual	-6078
▁master	-6079
▁passed	-6080
▁places	-6081
▁record	-6082
▁robust	-6083
▁showed	-6084
▁writes	-6085
interest	-6086
language	-6087
ructured	-6088
ruitment	-6089
▁Alexand	-6090
▁Banking	-6091
▁Growing	-6092
▁Outline	-6093
▁Reports	-6094
▁Suggest	-6095
▁Written	-6096
▁agentic	-6097
▁average	-6098
▁conflic	-6099
▁constit	-6100
▁contact	-6101
▁defense	-6102
▁dynamic	-6103
▁empower	-6104
▁enabled	-6105
▁evolved	-6106
▁extreme	-6107
▁focused	-6108
▁forward	-6109
▁happens	-6110
▁instead	-6111
▁matters	-6112
▁ongoing	-6113
▁outside	-6114
▁picture	-6115
▁primary	-6116
▁private	-6117
▁purpose	-6118
▁regular	-6119
▁rewards	-6120
▁studies	-6121
▁trading	-6122
▁weights	-6123
ificantly	-6124
▁Discover	-6125
▁Economic	-6126
▁Enhanced	-6127
▁Guardian	-6128
▁Transfer	-6129
▁Websites	-6130
▁accessed	-6131
▁ensuring	-6132
▁evolving	-6133
▁familiar	-6134
▁globally	-6135
▁guidance	-6136
▁hundreds	-6137
▁included	-6138
▁military	-6139
▁negative	-6140
▁particip	-6141
▁probably	-6142
▁programm	-6143
▁received	-6144
▁shopping	-6145
▁strength	-6146
▁suggests	-6147
▁AlphaFold	-6148
▁Available	-6149
▁Technical	-6150
▁beautiful	-6151
▁benchmark	-6152
▁deepfakes	-6153
▁gradually	-6154
▁highlight	-6155
▁migration	-6156
▁optimized	-6157
▁requiring	-6158
▁substanti	-6159
▁supported	-6160
▁Psychology	-6161
▁Revolution	-6162
▁discovered	-6163
▁importance	-6164
▁impressive	-6165
▁principles	-6166
▁regulatory	-6167
▁researcher	-6168
▁streamline	-6169
▁subsection	-6170
▁throughout	-6171
▁underlying	-6172
▁widespread	-6173
▁Adversarial	-6174
▁Interactive	-6175
▁Netherlands	-6176
▁communities	-6177
▁discoveries	-6178
▁independent	-6179
▁initiatives	-6180
▁interesting	-6181
▁maintenance	-6182
▁preferences	-6183
▁proposition	-6184
▁uncertainty	-6185
▁Architecture	-6186
▁Certificates	-6187
▁connectivity	-6188
▁continuously	-6189
▁monetization	-6190
▁Collaboration	-6191
▁Organizations	-6192
▁indistinguish	-6193
▁informational	-6194
▁mathematician	-6195
▁possibilities	-6196
▁unprecedented	-6197
▁Capitalization	-6198
▁Sustainability	-6199
05	-6200
13	-6201
1]	-6202
46	-6203
54	-6204
55	-6205
89	-6206
CP	-6207
ET	-6208
II	-6209
Is	-6210
RC	-6211
bl	-6212
he	-6213
ko	-6214
mm	-6215
rr	-6216
xy	-6217
ye	-6218
)\)	-6219
/20	-6220
100	-6221
3).	-6222
5),	-6223
ARR	-6224
Phi	-6225
Red	-6226
STM	-6227
TEM	-6228
Xiv	-6229
aby	-6230
ait	-6231
bsp	-6232
ein	-6233
epr	-6234
ino	-6235
joy	-6236
lej	-6237
nes	-6238
obe	-6239
see	-6240
ulu	-6241
ypt	-6242
▁".	-6243
▁(9	-6244
▁3:	-6245
▁42	-6246
▁46	-6247
▁Ha	-6248
▁ID	-6249
▁Me	-6250
▁Ti	-6251
▁Yu	-6252
▁my	-6253
▁sl	-6254
/23,	-6255
Labs	-6256
Show	-6257
arts	-6258
augh	-6259
bing	-6260
cont	-6261
eign	-6262
epar	-6263
erce	-6264
eval	-6265
iffs	-6266
lass	-6267
lies	-6268
mail	-6269
nbsp	-6270
omic	-6271
otal	-6272
oura	-6273
uzzy	-6274
▁10,	-6275
▁12,	-6276
▁28,	-6277
▁Art	-6278
▁Ash	-6279
▁Dar	-6280
▁Ent	-6281
▁Fil	-6282
▁Lic	-6283
▁McG	-6284
▁Rad	-6285
▁Rod	-6286
▁SAP	-6287
▁Sit	-6288
▁Sue	-6289
▁Win	-6290
▁Yet	-6291
▁[10	-6292
▁abs	-6293
▁air	-6294
▁ban	-6295
▁hit	-6296
▁inj	-6297
▁tit	-6298
▁tri	-6299
adigm	-6300
alone	-6301
artes	-6302
chest	-6303
elled	-6304
ellow	-6305
ensen	-6306
eting	-6307
eyond	-6308
faces	-6309
isely	-6310
istem	-6311
marks	-6312
oling	-6313
ommun	-6314
osing	-6315
print	-6316
raord	-6317
ronic	-6318
ronom	-6319
ureau	-6320
using	-6321
▁(1):	-6322
▁1109	-6323
▁9/23	-6324
▁Bene	-6325
▁Call	-6326
▁Eliz	-6327
▁FAQs	-6328
▁Flow	-6329
▁Hall	-6330
▁Happ	-6331
▁Kauf	-6332
▁Long	-6333
▁Prof	-6334
▁STEM	-6335
▁Save	-6336
▁Viya	-6337
▁anom	-6338
▁bill	-6339
▁dire	-6340
▁fine	-6341
▁flaw	-6342
▁food	-6343
▁gave	-6344
▁grid	-6345
▁hope	-6346
▁mess	-6347
▁norm	-6348
▁rule	-6349
▁spam	-6350
▁stay	-6351
▁surg	-6352
▁tend	-6353
▁vend	-6354
▁warn	-6355
▁went	-6356
acters	-6357
ancies	-6358
atency	-6359
covery	-6360
ectrum	-6361
ground	-6362
ishing	-6363
ortion	-6364
riends	-6365
usters	-6366
veness	-6367
▁2014.	-6368
▁2015,	-6369
▁2021.	-6370
▁Adobe	-6371
▁Again	-6372
▁Angel	-6373
▁Baidu	-6374
▁Close	-6375
▁Daily	-6376
▁Datas	-6377
▁Facts	-6378
▁Initi	-6379
▁Moral	-6380
▁Navig	-6381
▁Neuro	-6382
▁Notes	-6383
▁Their	-6384
▁Under	-6385
▁Value	-6386
▁Which	-6387
▁White	-6388
▁block	-6389
▁books	-6390
▁calls	-6391
▁clean	-6392
▁divid	-6393
▁doubt	-6394
▁fight	-6395
▁lower	-6396
▁plant	-6397
▁retri	-6398
▁round	-6399
▁token	-6400
asingly	-6401
cribers	-6402
ivalent	-6403
lassian	-6404
perform	-6405
program	-6406
timedia	-6407
▁(2014)	-6408
▁Cookie	-6409
▁Differ	-6410
▁During	-6411
▁Guides	-6412
▁Issues	-6413
▁Jensen	-6414
▁Joseph	-6415
▁Markov	-6416
▁Maslej	-6417
▁Nestor	-6418
▁Retail	-6419
▁Samuel	-6420
▁Should	-6421
▁Steady	-6422
▁argued	-6423
▁argues	-6424
▁assign	-6425
▁charts	-6426
▁coming	-6427
▁either	-6428
▁famous	-6429
▁giving	-6430
▁incomp	-6431
▁inside	-6432
▁invent	-6433
▁mining	-6434
▁nearly	-6435
▁raises	-6436
▁sensor	-6437
▁thanks	-6438
▁verify	-6439
▁winter	-6440
forGeeks	-6441
unctions	-6442
▁Account	-6443
▁Experts	-6444
▁Goldman	-6445
▁Methods	-6446
▁Popular	-6447
▁Pricing	-6448
▁Quarter	-6449
▁Twitter	-6450
▁Vincent	-6451
▁Windows	-6452
▁appears	-6453
▁biology	-6454
▁classif	-6455
▁courses	-6456
▁doctors	-6457
▁exhibit	-6458
▁factory	-6459
▁founder	-6460
▁members	-6461
▁nations	-6462
▁orchest	-6463
▁outcome	-6464
▁section	-6465
▁sidebar	-6466
▁theorem	-6467
awareness	-6468
imination	-6469
▁BigQuery	-6470
▁Creative	-6471
▁Director	-6472
▁Introduc	-6473
▁Launches	-6474
▁Steering	-6475
▁citizens	-6476
▁contrast	-6477
▁electric	-6478
▁external	-6479
▁graphics	-6480
▁humanoid	-6481
▁mitigate	-6482
▁neighbor	-6483
▁performs	-6484
▁positive	-6485
▁searches	-6486
▁simplify	-6487
raordinary	-6488
structured	-6489
▁Chemistry	-6490
▁Constrain	-6491
▁Detection	-6492
▁Implement	-6493
▁Operating	-6494
▁Workspace	-6495
▁creatures	-6496
▁employees	-6497
▁equipment	-6498
▁existence	-6499
▁exploring	-6500
▁interconn	-6501
▁logistics	-6502
▁prominent	-6503
▁textbooks	-6504
performance	-6505
tifications	-6506
▁Contribute	-6507
▁Institutes	-6508
▁Laboratory	-6509
▁Newsletter	-6510
▁Operations	-6511
▁Perceptron	-6512
▁Telecommun	-6513
▁compliance	-6514
▁constantly	-6515
▁interfaces	-6516
▁practition	-6517
▁simulating	-6518
▁standalone	-6519
▁strategies	-6520
▁ultimately	-6521
▁understood	-6522
▁Challengers	-6523
▁combination	-6524
▁connections	-6525
▁demonstrate	-6526
▁encompasses	-6527
▁essentially	-6528
▁existential	-6529
▁forecasting	-6530
▁handwriting	-6531
▁philosopher	-6532
▁translating	-6533
▁QuantumBlack	-6534
▁autonomously	-6535
▁descriptions	-6536
▁distribution	-6537
▁interactions	-6538
▁restrictions	-6539
▁Possibilities	-6540
▁Certifications	-6541
▁Communications	-6542
▁transformation	-6543
/9	-6544
56	-6545
77	-6546
Al	-6547
EM	-6548
IN	-6549
It	-6550
OT	-6551
PC	-6552
TQ	-6553
US	-6554
Un	-6555
af	-6556
▁>	-6557
-12	-6558
-4.	-6559
3–1	-6560
500	-6561
How	-6562
NNs	-6563
Rel	-6564
Web	-6565
\(^	-6566
acc	-6567
ana	-6568
ano	-6569
ews	-6570
ham	-6571
ios	-6572
iro	-6573
isk	-6574
map	-6575
ora	-6576
phi	-6577
reg	-6578
uin	-6579
uli	-6580
ски	-6581
–20	-6582
▁48	-6583
▁51	-6584
▁5:	-6585
▁79	-6586
▁CI	-6587
▁Os	-6588
▁UN	-6589
▁Uk	-6590
ARPA	-6591
Blue	-6592
GBTQ	-6593
Trad	-6594
Zero	-6595
ager	-6596
aign	-6597
arch	-6598
ctor	-6599
deep	-6600
eers	-6601
haus	-6602
igor	-6603
ique	-6604
irds	-6605
oded	-6606
otyp	-6607
part	-6608
rant	-6609
rent	-6610
requ	-6611
rict	-6612
that	-6613
uepr	-6614
uler	-6615
umPy	-6616
used	-6617
word	-6618
▁(16	-6619
▁17,	-6620
▁20,	-6621
▁250	-6622
▁26,	-6623
▁27,	-6624
▁30,	-6625
▁Aer	-6626
▁Bud	-6627
▁Bur	-6628
▁FOL	-6629
▁Fer	-6630
▁Gal	-6631
▁Hol	-6632
▁Ide	-6633
▁Lif	-6634
▁Los	-6635
▁Sun	-6636
▁Sup	-6637
▁Ter	-6638
▁USD	-6639
▁Veo	-6640
▁age	-6641
▁amb	-6642
▁beh	-6643
▁cel	-6644
▁ign	-6645
▁lif	-6646
▁pip	-6647
▁scr	-6648
▁sil	-6649
▁ter	-6650
Watch	-6651
abric	-6652
aiwan	-6653
annon	-6654
arios	-6655
grade	-6656
image	-6657
inear	-6658
ipped	-6659
ossus	-6660
pload	-6661
think	-6662
ulent	-6663
umann	-6664
uning	-6665
uries	-6666
ynthe	-6667
▁1023	-6668
▁3/23	-6669
▁Aust	-6670
▁Bard	-6671
▁Benj	-6672
▁Berg	-6673
▁CNBC	-6674
▁FLOP	-6675
▁Foss	-6676
▁Kenn	-6677
▁Labs	-6678
▁Mars	-6679
▁Mart	-6680
▁Race	-6681
▁Room	-6682
▁Site	-6683
▁Stay	-6684
▁Them	-6685
▁Tool	-6686
▁Used	-6687
▁Want	-6688
▁West	-6689
▁Yann	-6690
▁coll	-6691
▁miss	-6692
▁pack	-6693
▁pick	-6694
▁prem	-6695
▁runs	-6696
▁sort	-6697
▁tail	-6698
advant	-6699
almers	-6700
ameras	-6701
escope	-6702
lantic	-6703
ocking	-6704
olingo	-6705
titude	-6706
urpose	-6707
▁2013,	-6708
▁2014,	-6709
▁2020,	-6710
▁978-1	-6711
▁Andre	-6712
▁Brand	-6713
▁COVID	-6714
▁Chess	-6715
▁Child	-6716
▁Discl	-6717
▁Email	-6718
▁Frank	-6719
▁Instr	-6720
▁LGBTQ	-6721
▁Minds	-6722
▁NumPy	-6723
▁Param	-6724
▁Polic	-6725
▁Price	-6726
▁Proxy	-6727
▁Rates	-6728
▁Smith	-6729
▁Stack	-6730
▁TechT	-6731
▁Trust	-6732
▁Vehic	-6733
▁Visit	-6734
▁arXiv	-6735
▁black	-6736
▁equal	-6737
▁favor	-6738
▁finds	-6739
▁gains	-6740
▁judge	-6741
▁login	-6742
▁panel	-6743
▁phase	-6744
▁phone	-6745
▁plans	-6746
▁texts	-6747
ainable	-6748
defined	-6749
earning	-6750
easible	-6751
icating	-6752
venLabs	-6753
▁(2024)	-6754
▁2019).	-6755
▁Advant	-6756
▁Andrew	-6757
▁Associ	-6758
▁Become	-6759
▁Beyond	-6760
▁Bureau	-6761
▁Formal	-6762
▁Fundam	-6763
▁Leader	-6764
▁Plants	-6765
▁Region	-6766
▁Rodney	-6767
▁Sports	-6768
▁Submit	-6769
▁agreed	-6770
▁analog	-6771
▁assets	-6772
▁branch	-6773
▁conver	-6774
▁deeper	-6775
▁destro	-6776
▁drones	-6777
▁engage	-6778
▁family	-6779
▁franch	-6780
▁gained	-6781
▁gather	-6782
▁larger	-6783
▁licens	-6784
▁limits	-6785
▁murder	-6786
▁native	-6787
▁princi	-6788
▁safely	-6789
▁stated	-6790
▁status	-6791
▁versus	-6792
▁volume	-6793
▁weapon	-6794
etration	-6795
tiveness	-6796
▁(3/25),	-6797
▁(5/25),	-6798
▁British	-6799
▁Comment	-6800
▁Continu	-6801
▁Degrees	-6802
▁Federal	-6803
▁Funding	-6804
▁Herbert	-6805
▁Leading	-6806
▁Markets	-6807
▁Merriam	-6808
▁Monitor	-6809
▁Penrose	-6810
▁Reuters	-6811
▁Stephen	-6812
▁Stories	-6813
▁Student	-6814
▁Unified	-6815
▁Updates	-6816
▁Without	-6817
▁Writing	-6818
▁brought	-6819
▁cameras	-6820
▁changed	-6821
▁cheaper	-6822
▁compens	-6823
▁credits	-6824
▁degrees	-6825
▁devoted	-6826
▁factors	-6827
▁fastest	-6828
▁journey	-6829
▁minimal	-6830
▁patents	-6831
▁persons	-6832
▁pricing	-6833
▁quantum	-6834
▁serving	-6835
▁sustain	-6836
▁towards	-6837
▁weapons	-6838
▁Colossus	-6839
▁Copeland	-6840
▁Earnings	-6841
▁Electric	-6842
▁Function	-6843
▁Includes	-6844
▁Kaufmann	-6845
▁Military	-6846
▁Progress	-6847
▁Relative	-6848
▁Semantic	-6849
▁Starlink	-6850
▁Timeline	-6851
▁circumst	-6852
▁citation	-6853
▁clusters	-6854
▁combined	-6855
▁construc	-6856
▁distinct	-6857
▁elements	-6858
▁happened	-6859
▁leverage	-6860
▁measured	-6861
▁operates	-6862
▁pictures	-6863
▁policies	-6864
▁practice	-6865
▁profound	-6866
▁purchase	-6867
▁receives	-6868
▁resource	-6869
▁sentient	-6870
▁subfield	-6871
▁surround	-6872
▁theories	-6873
employment	-6874
processing	-6875
▁Atlassian	-6876
▁Challenge	-6877
▁Consumers	-6878
▁Discovery	-6879
▁Galleries	-6880
▁Happening	-6881
▁Libraries	-6882
▁Pinterest	-6883
▁Recurrent	-6884
▁Statement	-6885
▁Uncertain	-6886
▁attention	-6887
▁challenge	-6888
▁diagnosis	-6889
▁franchise	-6890
▁instances	-6891
▁machinery	-6892
▁precisely	-6893
▁recurrent	-6894
▁replacing	-6895
▁reporting	-6896
▁retrieval	-6897
▁therefore	-6898
▁translate	-6899
▁treatment	-6900
▁worldwide	-6901
▁Challenges	-6902
▁Components	-6903
▁Constraint	-6904
▁Creativity	-6905
▁Dictionary	-6906
▁ElevenLabs	-6907
▁Employment	-6908
▁Guidelines	-6909
▁Literature	-6910
▁Multimedia	-6911
▁assistance	-6912
▁consistent	-6913
▁delivering	-6914
▁differenti	-6915
▁fraudulent	-6916
▁guidelines	-6917
▁mechanical	-6918
▁navigation	-6919
▁perceptron	-6920
▁restricted	-6921
▁statements	-6922
▁structured	-6923
▁sufficient	-6924
entification	-6925
▁Association	-6926
▁Electricity	-6927
▁Subscribers	-6928
▁agriculture	-6929
▁challenging	-6930
▁constraints	-6931
▁differences	-6932
▁discussions	-6933
▁feedforward	-6934
▁immediately	-6935
▁improvement	-6936
▁semiconduct	-6937
▁introduction	-6938
▁publications	-6939
▁transactions	-6940
▁Significantly	-6941
▁accessibility	-6942
▁fundamentally	-6943
-7	-6944
2%	-6945
96	-6946
CC	-6947
DP	-6948
MB	-6949
MS	-6950
Re	-6951
SM	-6952
Sp	-6953
TC	-6954
TO	-6955
añ	-6956
oT	-6957
sc	-6958
ui	-6959
ze	-6960
ар	-6961
–3	-6962
–8	-6963
▁Б	-6964
-7.	-6965
8),	-6966
AVA	-6967
GAN	-6968
_{\	-6969
ado	-6970
apt	-6971
edy	-6972
els	-6973
ept	-6974
fol	-6975
inn	-6976
lig	-6977
log	-6978
max	-6979
mor	-6980
rep	-6981
win	-6982
▁5%	-6983
▁55	-6984
▁9%	-6985
▁AM	-6986
▁DA	-6987
▁Dj	-6988
▁ER	-6989
▁II	-6990
▁JP	-6991
▁Ma	-6992
▁TT	-6993
▁Ul	-6994
2023	-6995
Bold	-6996
Weak	-6997
agon	-6998
ango	-6999
araj	-7000
ella	-7001
ench	-7002
etit	-7003
fers	-7004
ided	-7005
ifer	-7006
lesh	-7007
niak	-7008
omon	-7009
oshi	-7010
oves	-7011
rief	-7012
rist	-7013
tial	-7014
ulty	-7015
usts	-7016
utsk	-7017
wood	-7018
yles	-7019
▁$1.	-7020
▁$10	-7021
▁150	-7022
▁194	-7023
▁22,	-7024
▁6/1	-7025
▁800	-7026
▁ANI	-7027
▁APA	-7028
▁ARR	-7029
▁Bel	-7030
▁Bid	-7031
▁Bio	-7032
▁Bre	-7033
▁Bug	-7034
▁FDA	-7035
▁Kar	-7036
▁Lov	-7037
▁Obs	-7038
▁PMC	-7039
▁Pub	-7040
▁Rom	-7041
▁Sal	-7042
▁VMs	-7043
▁bal	-7044
▁cer	-7045
▁edu	-7046
▁god	-7047
▁hor	-7048
▁hot	-7049
▁mer	-7050
▁pen	-7051
▁sie	-7052
andem	-7053
anges	-7054
anted	-7055
aping	-7056
arged	-7057
attle	-7058
chain	-7059
eless	-7060
ester	-7061
folio	-7062
igion	-7063
ingly	-7064
ollar	-7065
osely	-7066
oster	-7067
rates	-7068
rical	-7069
ursor	-7070
uting	-7071
▁$200	-7072
▁(5/1	-7073
▁1007	-7074
▁2006	-7075
▁2008	-7076
▁2009	-7077
▁Andy	-7078
▁Brad	-7079
▁Copy	-7080
▁Cort	-7081
▁Desc	-7082
▁Foot	-7083
▁Frid	-7084
▁Jeff	-7085
▁MAUs	-7086
▁Marc	-7087
▁Qual	-7088
▁Sach	-7089
▁Seem	-7090
▁Soft	-7091
▁Uber	-7092
▁acts	-7093
▁bene	-7094
▁body	-7095
▁cook	-7096
▁dive	-7097
▁foot	-7098
▁gene	-7099
▁hasn	-7100
▁heat	-7101
▁heav	-7102
▁held	-7103
▁incl	-7104
▁mist	-7105
▁myst	-7106
▁rare	-7107
▁semi	-7108
▁soci	-7109
▁stop	-7110
-2025,	-7111
-5/25,	-7112
acking	-7113
format	-7114
imedia	-7115
ipping	-7116
istent	-7117
opedia	-7118
ronomy	-7119
ultane	-7120
worthy	-7121
▁11/23	-7122
▁2006,	-7123
▁2007.	-7124
▁2022.	-7125
▁Arist	-7126
▁Deepf	-7127
▁Dream	-7128
▁Evalu	-7129
▁Firef	-7130
▁Given	-7131
▁Goals	-7132
▁Jones	-7133
▁Links	-7134
▁Pilot	-7135
▁Right	-7136
▁Smart	-7137
▁Sutsk	-7138
▁Tells	-7139
▁Trade	-7140
▁Units	-7141
▁alone	-7142
▁argue	-7143
▁cause	-7144
▁enjoy	-7145
▁frame	-7146
▁hands	-7147
▁infer	-7148
▁looks	-7149
▁marks	-7150
▁notes	-7151
▁prove	-7152
▁react	-7153
▁scene	-7154
▁separ	-7155
▁tries	-7156
▁wheel	-7157
▁whole	-7158
Related	-7159
Webster	-7160
ellular	-7161
ficiary	-7162
machine	-7163
present	-7164
ticloud	-7165
ueprint	-7166
▁2017).	-7167
▁2022).	-7168
▁Author	-7169
▁Carbon	-7170
▁Django	-7171
▁Donate	-7172
▁George	-7173
▁Hybrid	-7174
▁Imagen	-7175
▁Import	-7176
▁Mechan	-7177
▁Middle	-7178
▁Notice	-7179
▁Secure	-7180
▁Simple	-7181
▁Skills	-7182
▁Taiwan	-7183
▁VMware	-7184
▁Walter	-7185
▁Yoshua	-7186
▁advice	-7187
▁assemb	-7188
▁attack	-7189
▁behavi	-7190
▁digits	-7191
▁disrup	-7192
▁evolve	-7193
▁gaming	-7194
▁incred	-7195
▁jQuery	-7196
▁obtain	-7197
▁police	-7198
▁propri	-7199
▁purpos	-7200
▁reveal	-7201
▁sector	-7202
▁senior	-7203
▁suited	-7204
▁vector	-7205
breaking	-7206
emantics	-7207
symbolic	-7208
training	-7209
ynthetic	-7210
▁Affairs	-7211
▁Because	-7212
▁Complex	-7213
▁Devices	-7214
▁Economy	-7215
▁Imagine	-7216
▁Kingdom	-7217
▁Neumann	-7218
▁Partner	-7219
▁Preview	-7220
▁Protein	-7221
▁Reviews	-7222
▁Russian	-7223
▁Solomon	-7224
▁Tencent	-7225
▁attacks	-7226
▁beliefs	-7227
▁command	-7228
▁defines	-7229
▁details	-7230
▁divided	-7231
▁dollars	-7232
▁exposed	-7233
▁failure	-7234
▁instant	-7235
▁obvious	-7236
▁proving	-7237
▁regions	-7238
▁returns	-7239
▁reviews	-7240
▁routine	-7241
▁smartph	-7242
▁uncover	-7243
▁unknown	-7244
▁updated	-7245
▁utility	-7246
▁weather	-7247
aterially	-7248
▁Accounts	-7249
▁Anderson	-7250
▁Argument	-7251
▁Atlantic	-7252
▁Duolingo	-7253
▁Simplify	-7254
▁Supports	-7255
▁Teaching	-7256
▁Workflow	-7257
▁abstract	-7258
▁combines	-7259
▁comments	-7260
▁compared	-7261
▁develops	-7262
▁encoding	-7263
▁official	-7264
▁phenomen	-7265
▁scalable	-7266
▁sequence	-7267
▁settings	-7268
▁simplest	-7269
▁speakers	-7270
▁starting	-7271
▁startups	-7272
▁theorems	-7273
▁thoughts	-7274
▁Academics	-7275
▁Descartes	-7276
▁Machinery	-7277
▁Overviews	-7278
▁Responses	-7279
▁Summaries	-7280
▁Sutskever	-7281
▁Universal	-7282
▁Wikimedia	-7283
▁advancing	-7284
▁alongside	-7285
▁dedicated	-7286
▁designers	-7287
▁educators	-7288
▁eliminate	-7289
▁expanding	-7290
▁libraries	-7291
▁malicious	-7292
▁mentioned	-7293
▁modernize	-7294
▁operation	-7295
▁oversight	-7296
▁precision	-7297
▁president	-7298
▁receiving	-7299
▁regarding	-7300
▁scenarios	-7301
▁sequences	-7302
▁suggested	-7303
Traditional	-7304
▁Governance	-7305
▁Highlights	-7306
▁Multimodal	-7307
▁activities	-7308
▁annualized	-7309
▁benchmarks	-7310
▁boundaries	-7311
▁characters	-7312
▁difficulty	-7313
▁discipline	-7314
▁generalize	-7315
▁incomplete	-7316
▁leadership	-7317
▁networking	-7318
▁procedures	-7319
▁processors	-7320
▁resurgence	-7321
▁treatments	-7322
▁Agriculture	-7323
▁Beneficiary	-7324
▁Existential	-7325
▁Foundations	-7326
▁Penetration	-7327
▁Statistical	-7328
▁Transformer	-7329
▁accelerated	-7330
▁adversarial	-7331
▁communicate	-7332
▁copyrighted	-7333
▁perspective	-7334
▁proprietary	-7335
▁singularity	-7336
▁Capabilities	-7337
▁Distribution	-7338
▁Increasingly	-7339
▁Investopedia	-7340
▁Perspectives	-7341
▁Satisfaction	-7342
▁construction	-7343
▁demonstrated	-7344
▁implementing	-7345
▁transformers	-7346
▁unemployment	-7347
▁Biotechnology	-7348
▁Documentation	-7349
▁Environmental	-7350
▁Professionals	-7351
▁Technological	-7352
▁architectures	-7353
▁circumstances	-7354
▁orchestration	-7355
▁practitioners	-7356
▁identification	-7357
▁interconnected	-7358
(\	-7359
**	-7360
2]	-7361
3]	-7362
49	-7363
58	-7364
66	-7365
98	-7366
ED	-7367
EF	-7368
GE	-7369
HA	-7370
MP	-7371
RU	-7372
SC	-7373
Su	-7374
ei	-7375
ni	-7376
tz	-7377
”,	-7378
00.	-7379
13.	-7380
24.	-7381
Inf	-7382
Rob	-7383
amm	-7384
arc	-7385
asa	-7386
asc	-7387
asp	-7388
bes	-7389
bur	-7390
ded	-7391
erb	-7392
hop	-7393
ias	-7394
kin	-7395
lie	-7396
nam	-7397
oDB	-7398
ola	-7399
olm	-7400
olo	-7401
ops	-7402
raw	-7403
ria	-7404
uck	-7405
vas	-7406
zel	-7407
▁+1	-7408
▁+6	-7409
▁1–	-7410
▁41	-7411
▁53	-7412
▁54	-7413
▁61	-7414
▁64	-7415
▁7,	-7416
▁FQ	-7417
▁FY	-7418
▁JS	-7419
▁Li	-7420
▁Mu	-7421
▁Ng	-7422
▁[8	-7423
/23)	-7424
DNET	-7425
Face	-7426
Live	-7427
Open	-7428
amin	-7429
anny	-7430
apon	-7431
borg	-7432
cean	-7433
cost	-7434
etts	-7435
gets	-7436
greg	-7437
insp	-7438
ithm	-7439
iver	-7440
made	-7441
mour	-7442
ocra	-7443
oken	-7444
olar	-7445
ooth	-7446
otle	-7447
rary	-7448
real	-7449
rele	-7450
repr	-7451
rics	-7452
roub	-7453
ruff	-7454
spañ	-7455
tist	-7456
▁$20	-7457
▁(27	-7458
▁105	-7459
▁11.	-7460
▁16.	-7461
▁21,	-7462
▁230	-7463
▁30)	-7464
▁Emb	-7465
▁Gra	-7466
▁Hen	-7467
▁Ian	-7468
▁IoT	-7469
▁Joy	-7470
▁Jud	-7471
▁Len	-7472
▁MLA	-7473
▁Mad	-7474
▁Mel	-7475
▁Mex	-7476
▁Pac	-7477
▁Pot	-7478
▁Put	-7479
▁Rog	-7480
▁Sel	-7481
▁Sen	-7482
▁She	-7483
▁Sym	-7484
▁Tur	-7485
▁fed	-7486
▁hop	-7487
▁ord	-7488
▁phr	-7489
▁piv	-7490
▁rad	-7491
▁ten	-7492
▁van	-7493
▁vir	-7494
-2023	-7495
achus	-7496
aired	-7497
athan	-7498
house	-7499
ished	-7500
lects	-7501
oices	-7502
olved	-7503
ontic	-7504
ordon	-7505
pping	-7506
uilty	-7507
ulner	-7508
while	-7509
▁(3):	-7510
▁1999	-7511
▁7/23	-7512
▁Bern	-7513
▁Byte	-7514
▁Cate	-7515
▁Deli	-7516
▁Dock	-7517
▁Edge	-7518
▁Five	-7519
▁Fran	-7520
▁Gran	-7521
▁Hill	-7522
▁Jack	-7523
▁Kore	-7524
▁Meas	-7525
▁Meet	-7526
▁Mong	-7527
▁Moor	-7528
▁Near	-7529
▁Paid	-7530
▁Plus	-7531
▁Pros	-7532
▁Size	-7533
▁Step	-7534
▁Weiz	-7535
▁clar	-7536
▁cool	-7537
▁epis	-7538
▁left	-7539
▁myth	-7540
▁pair	-7541
▁puzz	-7542
▁send	-7543
▁shar	-7544
▁stra	-7545
▁took	-7546
▁trac	-7547
▁wild	-7548
Script	-7549
ashion	-7550
criber	-7551
eating	-7552
ecting	-7553
efined	-7554
encing	-7555
enguin	-7556
entals	-7557
ficial	-7558
iosity	-7559
ocracy	-7560
otonic	-7561
profit	-7562
remely	-7563
vertis	-7564
witzer	-7565
▁(2015	-7566
▁1,000	-7567
▁10/23	-7568
▁1109/	-7569
▁1994,	-7570
▁1995,	-7571
▁2002,	-7572
▁2003,	-7573
▁2009,	-7574
▁2017,	-7575
▁5/25.	-7576
▁Aeron	-7577
▁Arena	-7578
▁Cases	-7579
▁Clark	-7580
▁Color	-7581
▁Court	-7582
▁Erica	-7583
▁Getty	-7584
▁Hayes	-7585
▁Ready	-7586
▁Sachs	-7587
▁Semis	-7588
▁Speed	-7589
▁Urban	-7590
▁Voice	-7591
▁added	-7592
▁barri	-7593
▁boost	-7594
▁brand	-7595
▁chief	-7596
▁civil	-7597
▁color	-7598
▁disag	-7599
▁guess	-7600
▁house	-7601
▁ideal	-7602
▁inbox	-7603
▁index	-7604
▁leads	-7605
▁minor	-7606
▁named	-7607
▁poses	-7608
▁psych	-7609
▁rates	-7610
▁staff	-7611
▁stock	-7612
▁turns	-7613
▁unint	-7614
Machine	-7615
arajulu	-7616
clusion	-7617
discipl	-7618
duction	-7619
inating	-7620
istered	-7621
ologies	-7622
ometric	-7623
onsense	-7624
osition	-7625
reprene	-7626
uration	-7627
uristic	-7628
vereign	-7629
▁(1998)	-7630
▁(2022)	-7631
▁2018).	-7632
▁Action	-7633
▁Boston	-7634
▁Census	-7635
▁Common	-7636
▁France	-7637
▁Friday	-7638
▁Gordon	-7639
▁KoBold	-7640
▁Manual	-7641
▁Martin	-7642
▁Mexico	-7643
▁Object	-7644
▁Observ	-7645
▁Output	-7646
▁Second	-7647
▁Sexual	-7648
▁Spaces	-7649
▁Thirty	-7650
▁Twenty	-7651
▁Warren	-7652
▁acknow	-7653
▁adults	-7654
▁atomic	-7655
▁brains	-7656
▁breaks	-7657
▁builds	-7658
▁comple	-7659
▁correl	-7660
▁counts	-7661
▁declar	-7662
▁device	-7663
▁emails	-7664
▁explan	-7665
▁factor	-7666
▁leader	-7667
▁oldest	-7668
▁planet	-7669
▁quanti	-7670
▁racial	-7671
▁raised	-7672
▁reader	-7673
▁reward	-7674
▁rising	-7675
▁solved	-7676
▁speeds	-7677
▁strict	-7678
▁superv	-7679
▁unique	-7680
Learning	-7681
inspired	-7682
iversity	-7683
logicist	-7684
thinking	-7685
▁Abridge	-7686
▁Against	-7687
▁AlexNet	-7688
▁Angeles	-7689
▁Cortana	-7690
▁Country	-7691
▁Enhance	-7692
▁Firefly	-7693
▁Fossils	-7694
▁Impacts	-7695
▁Insider	-7696
▁License	-7697
▁Logical	-7698
▁MongoDB	-7699
▁Pacific	-7700
▁Regions	-7701
▁Richard	-7702
▁adjusts	-7703
▁adopted	-7704
▁android	-7705
▁causing	-7706
▁college	-7707
▁cookies	-7708
▁discrep	-7709
▁economy	-7710
▁encoura	-7711
▁founded	-7712
▁genetic	-7713
▁harness	-7714
▁himself	-7715
▁imagine	-7716
▁imitate	-7717
▁promise	-7718
▁ranging	-7719
▁reached	-7720
▁scaling	-7721
▁setting	-7722
▁shaping	-7723
▁student	-7724
▁succeed	-7725
▁superch	-7726
▁talking	-7727
▁textual	-7728
▁trusted	-7729
▁winning	-7730
▁writers	-7731
achusetts	-7732
ciousness	-7733
▁Academia	-7734
▁Benjamin	-7735
▁Chalmers	-7736
▁Creating	-7737
▁Identity	-7738
▁Searches	-7739
▁Subjects	-7740
▁Theorist	-7741
▁Thinking	-7742
▁Trainium	-7743
▁adapting	-7744
▁advertis	-7745
▁analyzed	-7746
▁children	-7747
▁competit	-7748
▁controls	-7749
▁detailed	-7750
▁dominant	-7751
▁engaging	-7752
▁enhances	-7753
▁equipped	-7754
▁estimate	-7755
▁explores	-7756
▁feelings	-7757
▁floating	-7758
▁incorpor	-7759
▁investor	-7760
▁matching	-7761
▁movement	-7762
▁offering	-7763
▁patients	-7764
▁powering	-7765
▁purposes	-7766
▁reflects	-7767
▁relative	-7768
▁sections	-7769
▁speaking	-7770
▁spending	-7771
▁straight	-7772
▁subjects	-7773
▁textbook	-7774
▁universe	-7775
▁verified	-7776
▁workshop	-7777
witzerland	-7778
▁Alexander	-7779
▁Blueprint	-7780
▁Character	-7781
▁Installed	-7782
▁Structure	-7783
▁agreement	-7784
▁automatic	-7785
▁breakdown	-7786
▁carefully	-7787
▁collected	-7788
▁component	-7789
▁confirmed	-7790
▁delivered	-7791
▁editorial	-7792
▁enhancing	-7793
▁ethically	-7794
▁exception	-7795
▁increases	-7796
▁integrate	-7797
▁invention	-7798
▁inventory	-7799
▁investing	-7800
▁involving	-7801
▁perfectly	-7802
▁principle	-7803
▁sensitive	-7804
▁streaming	-7805
▁summarize	-7806
▁universal	-7807
▁virtually	-7808
▁2014-2024,	-7809
▁Agentforce	-7810
▁Approaches	-7811
▁Navigation	-7812
▁Solomonoff	-7813
▁Strategies	-7814
▁Terminator	-7815
▁TypeScript	-7816
▁Weizenbaum	-7817
▁advantages	-7818
▁controvers	-7819
▁equivalent	-7820
▁frequently	-7821
▁industrial	-7822
▁properties	-7823
▁recognized	-7824
disciplinary	-7825
▁Competitive	-7826
▁Exploration	-7827
▁Improvement	-7828
▁Integration	-7829
▁Traditional	-7830
▁cybernetics	-7831
▁educational	-7832
▁exploration	-7833
▁identifiers	-7834
▁integrating	-7835
▁linguistics	-7836
▁observation	-7837
▁opportunity	-7838
▁recruitment	-7839
▁simulations	-7840
▁transformer	-7841
▁Additionally	-7842
▁Connectivity	-7843
▁Construction	-7844
▁Conversation	-7845
▁Organization	-7846
▁Partnerships	-7847
▁achievements	-7848
▁contributors	-7849
▁historically	-7850
▁neuroscience	-7851
▁relationship	-7852
▁universities	-7853
▁Convolutional	-7854
▁GeeksforGeeks	-7855
▁Massachusetts	-7856
▁connectionist	-7857
▁discrepancies	-7858
▁exponentially	-7859
▁functionality	-7860
▁independently	-7861
▁intelligently	-7862
▁Administration	-7863
▁discrimination	-7864
▁responsibility	-7865
-6	-7866
48	-7867
61	-7868
BI	-7869
CI	-7870
PG	-7871
PO	-7872
RO	-7873
SE	-7874
TH	-7875
TS	-7876
gn	-7877
ji	-7878
pe	-7879
ux	-7880
wa	-7881
{\	-7882
ça	-7883
/30	-7884
3),	-7885
38/	-7886
AAI	-7887
And	-7888
Aut	-7889
BMS	-7890
CLC	-7891
Max	-7892
New	-7893
Pad	-7894
Pro	-7895
Six	-7896
TIF	-7897
Vel	-7898
arn	-7899
den	-7900
egu	-7901
eks	-7902
idi	-7903
isp	-7904
kit	-7905
las	-7906
lor	-7907
mer	-7908
mon	-7909
ras	-7910
ret	-7911
unt	-7912
zos	-7913
–19	-7914
▁$8	-7915
▁3)	-7916
▁49	-7917
▁52	-7918
▁57	-7919
▁78	-7920
▁8,	-7921
▁9,	-7922
▁AD	-7923
▁DJ	-7924
▁Di	-7925
▁Od	-7926
▁PL	-7927
▁Py	-7928
▁Ra	-7929
▁UC	-7930
▁Zh	-7931
▁nu	-7932
FLOP	-7933
GPUs	-7934
High	-7935
Note	-7936
Wise	-7937
abis	-7938
adox	-7939
anda	-7940
answ	-7941
apse	-7942
aste	-7943
atur	-7944
ched	-7945
cles	-7946
earl	-7947
erts	-7948
etal	-7949
etic	-7950
evin	-7951
fare	-7952
ffer	-7953
inux	-7954
irth	-7955
iser	-7956
lein	-7957
loch	-7958
olve	-7959
ongs	-7960
oses	-7961
page	-7962
rete	-7963
rich	-7964
sApp	-7965
step	-7966
ston	-7967
suit	-7968
udes	-7969
uses	-7970
uter	-7971
▁$40	-7972
▁(22	-7973
▁+20	-7974
▁02:	-7975
▁04:	-7976
▁11,	-7977
▁118	-7978
▁125	-7979
▁14.	-7980
▁16,	-7981
▁160	-7982
▁18.	-7983
▁220	-7984
▁30%	-7985
▁Any	-7986
▁CDN	-7987
▁Cri	-7988
▁Cur	-7989
▁Den	-7990
▁Fir	-7991
▁Fox	-7992
▁IEA	-7993
▁Ken	-7994
▁Pew	-7995
▁SMB	-7996
▁Str	-7997
▁axi	-7998
▁cam	-7999
▁cou	-8000
▁dim	-8001
▁div	-8002
▁nor	-8003
▁pop	-8004
▁raw	-8005
▁ren	-8006
▁sas	-8007
▁sex	-8008
▁six	-8009
▁squ	-8010
▁tax	-8011
GenAI	-8012
Human	-8013
Velez	-8014
Weave	-8015
ached	-8016
agent	-8017
ailed	-8018
alies	-8019
asion	-8020
auren	-8021
bient	-8022
count	-8023
elian	-8024
ewhat	-8025
hoods	-8026
iable	-8027
iants	-8028
iding	-8029
ighth	-8030
igins	-8031
inars	-8032
inely	-8033
isted	-8034
ldots	-8035
olars	-8036
oplan	-8037
owski	-8038
quist	-8039
ralia	-8040
rants	-8041
stand	-8042
ticip	-8043
token	-8044
urely	-8045
usual	-8046
▁(4):	-8047
▁1998	-8048
▁2001	-8049
▁Answ	-8050
▁Apps	-8051
▁Arab	-8052
▁Bell	-8053
▁Carl	-8054
▁DBMS	-8055
▁DOGE	-8056
▁Fort	-8057
▁Hard	-8058
▁Hass	-8059
▁Hend	-8060
▁Horn	-8061
▁Land	-8062
▁Mamm	-8063
▁Mess	-8064
▁Mist	-8065
▁Nick	-8066
▁Nils	-8067
▁OCLC	-8068
▁Opin	-8069
▁Phil	-8070
▁Road	-8071
▁Shop	-8072
▁ampl	-8073
▁audi	-8074
▁clim	-8075
▁dead	-8076
▁earn	-8077
▁ease	-8078
▁ends	-8079
▁file	-8080
▁film	-8081
▁gain	-8082
▁geop	-8083
▁half	-8084
▁hype	-8085
▁iPad	-8086
▁jump	-8087
▁lost	-8088
▁mamm	-8089
▁marg	-8090
▁node	-8091
▁poor	-8092
▁quiz	-8093
▁sold	-8094
▁subt	-8095
▁targ	-8096
▁tree	-8097
▁ware	-8098
▁wear	-8099
▁wins	-8100
abytes	-8101
ameron	-8102
apable	-8103
armers	-8104
asting	-8105
author	-8106
called	-8107
change	-8108
erscal	-8109
fellow	-8110
icians	-8111
irical	-8112
manent	-8113
ologic	-8114
points	-8115
posium	-8116
rivial	-8117
ualism	-8118
▁1007/	-8119
▁1038/	-8120
▁1996,	-8121
▁1998,	-8122
▁2004,	-8123
▁2005,	-8124
▁2013.	-8125
▁2021,	-8126
▁Activ	-8127
▁Among	-8128
▁Artif	-8129
▁Award	-8130
▁Bibli	-8131
▁Blogs	-8132
▁Civil	-8133
▁DARPA	-8134
▁Doing	-8135
▁Doshi	-8136
▁Eliza	-8137
▁Españ	-8138
▁House	-8139
▁Kevin	-8140
▁Linux	-8141
▁Major	-8142
▁OpenC	-8143
▁Pages	-8144
▁Psych	-8145
▁Roger	-8146
▁Roser	-8147
▁Rules	-8148
▁Scott	-8149
▁Sites	-8150
▁Staff	-8151
▁Story	-8152
▁Those	-8153
▁Three	-8154
▁board	-8155
▁brief	-8156
▁cited	-8157
▁facil	-8158
▁goods	-8159
▁homes	-8160
▁hyper	-8161
▁items	-8162
▁joint	-8163
▁molec	-8164
▁newly	-8165
▁plays	-8166
▁query	-8167
▁ready	-8168
▁siege	-8169
▁thres	-8170
▁views	-8171
▁weeks	-8172
Powered	-8173
aeology	-8174
atories	-8175
checked	-8176
ellence	-8177
iration	-8178
isition	-8179
itating	-8180
mission	-8181
purpose	-8182
ression	-8183
ributes	-8184
titudes	-8185
▁2014).	-8186
▁2020).	-8187
▁Assess	-8188
▁Astera	-8189
▁Barolo	-8190
▁Berlin	-8191
▁Christ	-8192
▁Credit	-8193
▁Cursor	-8194
▁Employ	-8195
▁Enable	-8196
▁Fusion	-8197
▁Govind	-8198
▁Harris	-8199
▁Hidden	-8200
▁Lauren	-8201
▁Levels	-8202
▁Looker	-8203
▁Matrix	-8204
▁Metals	-8205
▁Others	-8206
▁Proper	-8207
▁Rather	-8208
▁Spring	-8209
▁Status	-8210
▁Steven	-8211
▁Supply	-8212
▁Taking	-8213
▁Tensor	-8214
▁Thomas	-8215
▁Threat	-8216
▁accord	-8217
▁aggreg	-8218
▁animal	-8219
▁attend	-8220
▁battle	-8221
▁choice	-8222
▁critic	-8223
▁disapp	-8224
▁dispar	-8225
▁double	-8226
▁emerge	-8227
▁forces	-8228
▁movies	-8229
▁pandem	-8230
▁passes	-8231
▁plants	-8232
▁prepar	-8233
▁revise	-8234
▁safegu	-8235
▁saying	-8236
▁screen	-8237
▁shapes	-8238
▁signal	-8239
▁stands	-8240
▁symbol	-8241
▁termin	-8242
▁tested	-8243
▁underg	-8244
▁varied	-8245
▁versat	-8246
▁viewed	-8247
▁visits	-8248
Facebook	-8249
commerce	-8250
criptive	-8251
ighthill	-8252
ographic	-8253
ulations	-8254
▁(2008).	-8255
▁(2011).	-8256
▁(2014).	-8257
▁(2017).	-8258
▁(2022).	-8259
▁(4/25),	-8260
▁Actions	-8261
▁Address	-8262
▁Advance	-8263
▁Aeronau	-8264
▁Authors	-8265
▁Cameron	-8266
▁Experim	-8267
▁Founder	-8268
▁Foundry	-8269
▁Genetic	-8270
▁Getting	-8271
▁Indones	-8272
▁Mammals	-8273
▁Manager	-8274
▁Nuclear	-8275
▁Penguin	-8276
▁Present	-8277
▁Quality	-8278
▁Reading	-8279
▁Reserve	-8280
▁Roadmap	-8281
▁Section	-8282
▁Shannon	-8283
▁Telecom	-8284
▁Venture	-8285
▁Working	-8286
▁anticip	-8287
▁applies	-8288
▁breadth	-8289
▁classic	-8290
▁clearly	-8291
▁combine	-8292
▁complet	-8293
▁connect	-8294
▁coordin	-8295
▁demands	-8296
▁descent	-8297
▁disease	-8298
▁drivers	-8299
▁fashion	-8300
▁highest	-8301
▁loosely	-8302
▁manager	-8303
▁markets	-8304
▁neither	-8305
▁offered	-8306
▁opposed	-8307
▁oversee	-8308
▁passing	-8309
▁precise	-8310
▁pursued	-8311
▁records	-8312
▁reshape	-8313
▁savings	-8314
▁schools	-8315
▁servers	-8316
▁signals	-8317
▁species	-8318
▁symbols	-8319
▁targets	-8320
▁turning	-8321
▁unified	-8322
▁warfare	-8323
▁Automate	-8324
▁Children	-8325
▁Complete	-8326
▁Consider	-8327
▁Gödelian	-8328
▁Hassabis	-8329
▁Increase	-8330
▁Moreover	-8331
▁Newquist	-8332
▁Opportun	-8333
▁Religion	-8334
▁Resource	-8335
▁Specific	-8336
▁Vehicles	-8337
▁WhatsApp	-8338
▁accounts	-8339
▁applying	-8340
▁commands	-8341
▁contains	-8342
▁downtime	-8343
▁earnings	-8344
▁employed	-8345
▁equation	-8346
▁expanded	-8347
▁explains	-8348
▁formulae	-8349
▁intended	-8350
▁invented	-8351
▁majority	-8352
▁minimize	-8353
▁occurred	-8354
▁organize	-8355
▁paradigm	-8356
▁perceive	-8357
▁produces	-8358
▁prototyp	-8359
▁replaced	-8360
▁requests	-8361
▁shifting	-8362
▁studying	-8363
▁tailored	-8364
▁thinkers	-8365
▁watching	-8366
advantages	-8367
orporation	-8368
▁Aristotle	-8369
▁Australia	-8370
▁Beginners	-8371
▁Certified	-8372
▁Cognition	-8373
▁Companion	-8374
▁CoreWeave	-8375
▁Customers	-8376
▁Educators	-8377
▁Generator	-8378
▁Investing	-8379
▁Permanent	-8380
▁Quarterly	-8381
▁Similarly	-8382
▁Workforce	-8383
▁accidents	-8384
▁anomalies	-8385
▁awareness	-8386
▁correctly	-8387
▁diagnoses	-8388
▁direction	-8389
▁emotional	-8390
▁executive	-8391
▁extremely	-8392
▁forecasts	-8393
▁happening	-8394
▁influence	-8395
▁insurance	-8396
▁intention	-8397
▁migrating	-8398
▁milestone	-8399
▁objective	-8400
▁performed	-8401
▁pipelines	-8402
▁predicted	-8403
▁professor	-8404
▁protected	-8405
▁resulting	-8406
▁selection	-8407
▁submitted	-8408
▁targeting	-8409
▁threshold	-8410
computation	-8411
ultaneously	-8412
▁Advantages	-8413
▁Commercial	-8414
▁Connection	-8415
▁Difference	-8416
▁Everything	-8417
▁Goodfellow	-8418
▁Monitoring	-8419
▁Multicloud	-8420
▁Protection	-8421
▁accurately	-8422
▁beneficial	-8423
▁biological	-8424
▁candidates	-8425
▁categorize	-8426
▁classified	-8427
▁clustering	-8428
▁collecting	-8429
▁comprehend	-8430
▁containers	-8431
▁disclosure	-8432
▁employment	-8433
▁extraction	-8434
▁hypothesis	-8435
▁innovative	-8436
▁intentions	-8437
▁meaningful	-8438
▁optimizing	-8439
▁protection	-8440
▁visibility	-8441
▁Algorithmic	-8442
▁Archaeology	-8443
▁Feedforward	-8444
▁Partnership	-8445
▁Singularity	-8446
▁Switzerland	-8447
▁commonsense	-8448
▁foundations	-8449
▁handwritten	-8450
▁highlighted	-8451
▁influential	-8452
▁modernizing	-8453
▁reliability	-8454
▁speculative	-8455
▁supervision	-8456
▁Mathematical	-8457
▁Philosophers	-8458
▁Transactions	-8459
▁accelerators	-8460
▁artificially	-8461
▁evolutionary	-8462
▁expectations	-8463
▁experimental	-8464
▁observations	-8465
▁verification	-8466
▁Consciousness	-8467
▁Govindarajulu	-8468
▁approximately	-8469
▁communication	-8470
▁significantly	-8471
▁considerations	-8472
▁groundbreaking	-8473
▁transformative	-8474
▁personalization	-8475
▁revolutionizing	-8476
")	-8477
,\	-8478
/?	-8479
0)	-8480
1-	-8481
7%	-8482
72	-8483
93	-8484
AM	-8485
BD	-8486
CR	-8487
Gu	-8488
QA	-8489
TM	-8490
YS	-8491
\}	-8492
].	-8493
``	-8494
bE	-8495
df	-8496
fe	-8497
gu	-8498
my	-8499
na	-8500
tm	-8501
}_	-8502
ار	-8503
▁?	-8504
-00	-8505
-2.	-8506
10.	-8507
362	-8508
44.	-8509
50.	-8510
6),	-8511
92.	-8512
ASI	-8513
AST	-8514
ERT	-8515
RNN	-8516
ara	-8517
com	-8518
emp	-8519
erl	-8520
iar	-8521
iny	-8522
lik	-8523
lim	-8524
lya	-8525
nav	-8526
oca	-8527
ocr	-8528
ota	-8529
pha	-8530
uit	-8531
xis	-8532
yan	-8533
▁+5	-8534
▁-$	-8535
▁0.	-8536
▁5-	-8537
▁6,	-8538
▁65	-8539
▁8%	-8540
▁88	-8541
▁90	-8542
▁91	-8543
▁9:	-8544
▁BT	-8545
▁CL	-8546
▁HQ	-8547
▁Ly	-8548
▁Na	-8549
▁Pi	-8550
▁SD	-8551
▁Tu	-8552
▁``	-8553
▁sn	-8554
-199	-8555
2024	-8556
2025	-8557
AIRR	-8558
Ages	-8559
ENCE	-8560
Free	-8561
Hall	-8562
June	-8563
MSYS	-8564
Requ	-8565
alls	-8566
alyz	-8567
aser	-8568
assy	-8569
bage	-8570
cern	-8571
chem	-8572
eals	-8573
ecks	-8574
edol	-8575
empl	-8576
etry	-8577
exas	-8578
eyer	-8579
igan	-8580
iles	-8581
ille	-8582
isch	-8583
izer	-8584
lead	-8585
open	-8586
orsk	-8587
osit	-8588
phas	-8589
race	-8590
rity	-8591
rone	-8592
ters	-8593
thal	-8594
ucas	-8595
uits	-8596
uril	-8597
usks	-8598
what	-8599
ysph	-8600
▁$0.	-8601
▁(18	-8602
▁(25	-8603
▁10%	-8604
▁110	-8605
▁122	-8606
▁15%	-8607
▁21.	-8608
▁22.	-8609
▁24/	-8610
▁240	-8611
▁600	-8612
▁90%	-8613
▁Age	-8614
▁Arn	-8615
▁Bos	-8616
▁Bot	-8617
▁CER	-8618
▁CIO	-8619
▁Del	-8620
▁GDP	-8621
▁GPS	-8622
▁Gaz	-8623
▁Has	-8624
▁Haw	-8625
▁His	-8626
▁Ire	-8627
▁Jür	-8628
▁Kat	-8629
▁Kel	-8630
▁Kri	-8631
▁Lef	-8632
▁Lev	-8633
▁Lou	-8634
▁McD	-8635
▁Mis	-8636
▁NRC	-8637
▁Neg	-8638
▁Nic	-8639
▁Nik	-8640
▁Off	-8641
▁PDF	-8642
▁Pap	-8643
▁Pas	-8644
▁PhD	-8645
▁Pol	-8646
▁TBD	-8647
▁Tax	-8648
▁Tay	-8649
▁Van	-8650
▁Wes	-8651
▁aud	-8652
▁bro	-8653
▁bud	-8654
▁buy	-8655
▁dam	-8656
▁gre	-8657
▁men	-8658
▁mon	-8659
▁obj	-8660
▁riv	-8661
▁seg	-8662
▁tar	-8663
▁tre	-8664
▁tut	-8665
▁wik	-8666
5/25)	-8667
Daily	-8668
First	-8669
TIFIC	-8670
addle	-8671
amper	-8672
anned	-8673
ardra	-8674
atial	-8675
aught	-8676
backs	-8677
borgs	-8678
burgh	-8679
class	-8680
eared	-8681
eding	-8682
endit	-8683
enger	-8684
error	-8685
erver	-8686
estim	-8687
fying	-8688
green	-8689
idata	-8690
ifies	-8691
impro	-8692
indow	-8693
inite	-8694
iscal	-8695
istra	-8696
lined	-8697
login	-8698
odied	-8699
onder	-8700
orter	-8701
oting	-8702
party	-8703
raine	-8704
robot	-8705
rolog	-8706
rucci	-8707
tiles	-8708
tists	-8709
ystop	-8710
▁$500	-8711
▁1/23	-8712
▁1996	-8713
▁5/23	-8714
▁BERT	-8715
▁Bars	-8716
▁Bugs	-8717
▁Burn	-8718
▁Dall	-8719
▁Dark	-8720
▁Diag	-8721
▁Door	-8722
▁File	-8723
▁Give	-8724
▁Hans	-8725
▁Ilya	-8726
▁JAVA	-8727
▁Lake	-8728
▁Load	-8729
▁Mand	-8730
▁Marg	-8731
▁Moll	-8732
▁Mort	-8733
▁Move	-8734
▁Myst	-8735
▁Name	-8736
▁Noam	-8737
▁Prad	-8738
▁Prem	-8739
▁Sean	-8740
▁Shap	-8741
▁Sora	-8742
▁Spot	-8743
▁Then	-8744
▁VAST	-8745
▁Wild	-8746
▁adds	-8747
▁amid	-8748
▁auto	-8749
▁burn	-8750
▁card	-8751
▁city	-8752
▁crew	-8753
▁didn	-8754
▁fasc	-8755
▁fear	-8756
▁grew	-8757
▁inev	-8758
▁lets	-8759
▁loop	-8760
▁opin	-8761
▁pros	-8762
▁skin	-8763
▁told	-8764
OpenAI	-8765
adigms	-8766
ansion	-8767
biased	-8768
cripts	-8769
elcome	-8770
ertion	-8771
iminal	-8772
itably	-8773
izable	-8774
lation	-8775
makers	-8776
medium	-8777
olding	-8778
racted	-8779
rolled	-8780
ronics	-8781
tuning	-8782
ulloch	-8783
umably	-8784
▁10/22	-8785
▁1950,	-8786
▁1956,	-8787
▁1997,	-8788
▁2001,	-8789
▁2010,	-8790
▁2019,	-8791
▁5/25,	-8792
▁Bezos	-8793
▁Biden	-8794
▁Birds	-8795
▁Board	-8796
▁Carol	-8797
▁Chain	-8798
▁Chair	-8799
▁Demis	-8800
▁Dynam	-8801
▁Emerg	-8802
▁Evans	-8803
▁Feder	-8804
▁Fires	-8805
▁Forec	-8806
▁Front	-8807
▁Glean	-8808
▁Gödel	-8809
▁Joint	-8810
▁Korea	-8811
▁LMSYS	-8812
▁Later	-8813
▁Lenat	-8814
▁Noida	-8815
▁Place	-8816
▁Recre	-8817
▁River	-8818
▁Saudi	-8819
▁Sedol	-8820
▁Short	-8821
▁Total	-8822
▁Views	-8823
▁appar	-8824
▁arbit	-8825
▁catch	-8826
▁chats	-8827
▁compr	-8828
▁cross	-8829
▁displ	-8830
▁edges	-8831
▁explo	-8832
▁extin	-8833
▁front	-8834
▁grand	-8835
▁haven	-8836
▁indic	-8837
▁knows	-8838
▁lines	-8839
▁mixed	-8840
▁motiv	-8841
▁names	-8842
▁penal	-8843
▁photo	-8844
▁prosp	-8845
▁rigor	-8846
▁schem	-8847
▁scope	-8848
▁showc	-8849
▁spark	-8850
▁surge	-8851
▁swarm	-8852
▁twice	-8853
▁vital	-8854
▁wider	-8855
▁worry	-8856
Grammar	-8857
bership	-8858
century	-8859
enabled	-8860
estyles	-8861
holders	-8862
ilience	-8863
leshoot	-8864
ologist	-8865
ounting	-8866
ulating	-8867
writing	-8868
ysphere	-8869
▁(2009)	-8870
▁(2018)	-8871
▁2012).	-8872
▁2023),	-8873
▁978-0-	-8874
▁AlphaS	-8875
▁DeepAI	-8876
▁Detect	-8877
▁Docker	-8878
▁Domain	-8879
▁Donald	-8880
▁Facial	-8881
▁Glance	-8882
▁Halper	-8883
▁Histor	-8884
▁Invert	-8885
▁Jürgen	-8886
▁Marcus	-8887
▁Photos	-8888
▁Random	-8889
▁Robust	-8890
▁Saddle	-8891
▁Silver	-8892
▁Summer	-8893
▁Summit	-8894
▁Vistra	-8895
▁affili	-8896
▁altern	-8897
▁arrive	-8898
▁basics	-8899
▁camera	-8900
▁chance	-8901
▁closed	-8902
▁closer	-8903
▁combat	-8904
▁commod	-8905
▁consid	-8906
▁decide	-8907
▁defend	-8908
▁excels	-8909
▁fabric	-8910
▁finite	-8911
▁format	-8912
▁gender	-8913
▁intens	-8914
▁killed	-8915
▁latter	-8916
▁nation	-8917
▁negoti	-8918
▁office	-8919
▁please	-8920
▁portal	-8921
▁prices	-8922
▁proved	-8923
▁quoted	-8924
▁rarely	-8925
▁refine	-8926
▁remote	-8927
▁retain	-8928
▁scenes	-8929
▁serves	-8930
▁shaped	-8931
▁shared	-8932
▁spoken	-8933
▁strive	-8934
▁suffer	-8935
▁summer	-8936
▁thesis	-8937
▁turned	-8938
▁unless	-8939
▁unlike	-8940
▁vendor	-8941
▁weight	-8942
▁window	-8943
Required	-8944
artments	-8945
ashboard	-8946
campaign	-8947
ficiency	-8948
gression	-8949
humanism	-8950
informed	-8951
omedical	-8952
requires	-8953
ructural	-8954
▁(2007).	-8955
▁(2010).	-8956
▁(2021).	-8957
▁(2024).	-8958
▁Average	-8959
▁Catalog	-8960
▁Chapter	-8961
▁Creates	-8962
▁Example	-8963
▁Expense	-8964
▁Factual	-8965
▁Forward	-8966
▁Grammar	-8967
▁Ireland	-8968
▁Matters	-8969
▁Measure	-8970
▁Readers	-8971
▁Roberts	-8972
▁Schools	-8973
▁Started	-8974
▁Supreme	-8975
▁Talking	-8976
▁Ukraine	-8977
▁agility	-8978
▁amongst	-8979
▁assumed	-8980
▁broadly	-8981
▁carried	-8982
▁concent	-8983
▁conduct	-8984
▁convert	-8985
▁curated	-8986
▁dangers	-8987
▁decline	-8988
▁default	-8989
▁deontic	-8990
▁display	-8991
▁distant	-8992
▁drawing	-8993
▁element	-8994
▁episode	-8995
▁exoplan	-8996
▁expense	-8997
▁filings	-8998
▁geopoli	-8999
▁hosting	-9000
▁immense	-9001
▁insight	-9002
▁largely	-9003
▁latency	-9004
▁lawsuit	-9005
▁library	-9006
▁metrics	-9007
▁modeled	-9008
▁monetiz	-9009
▁mystery	-9010
▁parties	-9011
▁pioneer	-9012
▁politic	-9013
▁profile	-9014
▁queries	-9015
▁realism	-9016
▁restaur	-9017
▁scoring	-9018
▁startup	-9019
answering	-9020
evergreen	-9021
intensive	-9022
represent	-9023
ventional	-9024
▁Accessed	-9025
▁Advances	-9026
▁Capacity	-9027
▁Comments	-9028
▁Concepts	-9029
▁Datasets	-9030
▁Everyone	-9031
▁Ferrucci	-9032
▁Friendly	-9033
▁Frontier	-9034
▁Genetics	-9035
▁Geologic	-9036
▁Improved	-9037
▁Interest	-9038
▁Japanese	-9039
▁Mollusks	-9040
▁Multiple	-9041
▁Original	-9042
▁Parallel	-9043
▁Policies	-9044
▁Postings	-9045
▁Previous	-9046
▁Reptiles	-9047
▁Republic	-9048
▁Spelling	-9049
▁Startups	-9050
▁administ	-9051
▁bringing	-9052
▁conflict	-9053
▁constant	-9054
▁contents	-9055
▁coverage	-9056
▁cultural	-9057
▁deepfake	-9058
▁defeated	-9059
▁download	-9060
▁excludes	-9061
▁failures	-9062
▁feasible	-9063
▁focusing	-9064
▁handling	-9065
▁indicate	-9066
▁labeling	-9067
▁magazine	-9068
▁manually	-9069
▁meetings	-9070
▁presents	-9071
▁regulate	-9072
▁reliably	-9073
▁sentence	-9074
▁spectrum	-9075
▁standing	-9076
▁tutorial	-9077
▁ultimate	-9078
▁upcoming	-9079
Generative	-9080
ationality	-9081
controlled	-9082
ectiveness	-9083
membership	-9084
repreneurs	-9085
tification	-9086
▁Anysphere	-9087
▁Astronomy	-9088
▁Downloads	-9089
▁Economist	-9090
▁Effective	-9091
▁Indonesia	-9092
▁Inductive	-9093
▁McCulloch	-9094
▁Omissions	-9095
▁Potential	-9096
▁Processes	-9097
▁Translate	-9098
▁alignment	-9099
▁arbitrary	-9100
▁calculate	-9101
▁committed	-9102
▁competing	-9103
▁consensus	-9104
▁detecting	-9105
▁embedding	-9106
▁exclusive	-9107
▁interests	-9108
▁leverages	-9109
▁mechanism	-9110
▁mimicking	-9111
▁offerings	-9112
▁organized	-9113
▁political	-9114
▁portfolio	-9115
▁prioritiz	-9116
▁reshaping	-9117
▁sentences	-9118
▁seriously	-9119
▁similarly	-9120
▁unlocking	-9121
▁utilizing	-9122
▁warehouse	-9123
roubleshoot	-9124
▁2022-2024,	-9125
▁Automotive	-9126
▁Behavioral	-9127
▁Deployment	-9128
▁Developing	-9129
▁Experience	-9130
▁Innovative	-9131
▁Instrument	-9132
▁Lifestyles	-9133
▁Recreation	-9134
▁TechTarget	-9135
▁Valuations	-9136
▁addressing	-9137
▁confidence	-9138
▁convenient	-9139
▁electrical	-9140
▁engagement	-9141
▁evaluation	-9142
▁horizontal	-9143
▁inherently	-9144
▁initiative	-9145
▁literature	-9146
▁manipulate	-9147
▁milestones	-9148
▁predefined	-9149
▁rationally	-9150
▁resolution	-9151
▁safeguards	-9152
▁subjective	-9153
▁Corporation	-9154
▁Corrections	-9155
▁Perceptrons	-9156
▁Responsible	-9157
▁Theoretical	-9158
▁Vertebrates	-9159
▁abstraction	-9160
▁acknowledge	-9161
▁acquisition	-9162
▁advancement	-9163
▁competitors	-9164
▁contributed	-9165
▁differently	-9166
▁disciplines	-9167
▁flexibility	-9168
▁publication	-9169
▁responsibly	-9170
▁transparent	-9171
▁Bibliography	-9172
▁Improvements	-9173
▁Neuroscience	-9174
▁Professional	-9175
▁ScienceDaily	-9176
▁breakthrough	-9177
▁compensation	-9178
▁considerable	-9179
▁participants	-9180
▁unstructured	-9181
▁Extraordinary	-9182
▁Invertebrates	-9183
▁Propositional	-9184
▁collaborative	-9185
▁comprehension	-9186
▁convolutional	-9187
▁substantially	-9188
▁supercomputer	-9189
▁traditionally	-9190
▁Transportation	-9191
▁hallucinations	-9192
▁simultaneously	-9193
▁sustainability	-9194
▁backpropagation	-9195
":	-9196
''	-9197
+)	-9198
,.	-9199
/.	-9200
63	-9201
=\	-9202
?"	-9203
AC	-9204
At	-9205
BO	-9206
CF	-9207
CO	-9208
CS	-9209
Do	-9210
Js	-9211
Mo	-9212
Ns	-9213
OI	-9214
Or	-9215
Pl	-9216
Ps	-9217
bf	-9218
fG	-9219
hi	-9220
jo	-9221
ng	-9222
no	-9223
ny	-9224
rd	-9225
sm	-9226
uk	-9227
аш	-9228
-1.	-9229
-5.	-9230
-9.	-9231
198	-9232
21.	-9233
25.	-9234
36.	-9235
50)	-9236
59.	-9237
7),	-9238
Big	-9239
CAI	-9240
CNN	-9241
IAL	-9242
Med	-9243
Out	-9244
Per	-9245
SMC	-9246
aaS	-9247
acu	-9248
any	-9249
ati	-9250
ato	-9251
awi	-9252
aya	-9253
big	-9254
cep	-9255
cho	-9256
cil	-9257
ego	-9258
err	-9259
eus	-9260
fts	-9261
geb	-9262
hus	-9263
ibb	-9264
icz	-9265
ige	-9266
igu	-9267
ika	-9268
imp	-9269
irm	-9270
izz	-9271
lla	-9272
lon	-9273
mes	-9274
olf	-9275
opt	-9276
qui	-9277
rag	-9278
rik	-9279
rog	-9280
sim	-9281
ski	-9282
sky	-9283
tml	-9284
tor	-9285
war	-9286
yet	-9287
zen	-9288
–10	-9289
▁):	-9290
▁**	-9291
▁+2	-9292
▁1/	-9293
▁2)	-9294
▁32	-9295
▁3–	-9296
▁4%	-9297
▁56	-9298
▁6)	-9299
▁63	-9300
▁68	-9301
▁71	-9302
▁74	-9303
▁8:	-9304
▁95	-9305
▁AR	-9306
▁AS	-9307
▁CD	-9308
▁Dr	-9309
▁Fe	-9310
▁GO	-9311
▁LI	-9312
▁MB	-9313
▁Sr	-9314
▁TO	-9315
▁VA	-9316
▁[1	-9317
▁kn	-9318
▁la	-9319
▁~$	-9320
▁~1	-9321
Beat	-9322
ESCO	-9323
Flow	-9324
LSTM	-9325
Last	-9326
SCAR	-9327
Seer	-9328
Thon	-9329
Verl	-9330
\(^+	-9331
abul	-9332
ades	-9333
alks	-9334
aran	-9335
ares	-9336
arks	-9337
aron	-9338
atew	-9339
aths	-9340
cing	-9341
edom	-9342
enko	-9343
eral	-9344
ewis	-9345
fits	-9346
glas	-9347
gles	-9348
high	-9349
icti	-9350
idel	-9351
igee	-9352
igin	-9353
iley	-9354
illa	-9355
imer	-9356
imov	-9357
inch	-9358
itch	-9359
itep	-9360
itiv	-9361
just	-9362
kind	-9363
kins	-9364
koud	-9365
lace	-9366
ller	-9367
lock	-9368
lood	-9369
look	-9370
mind	-9371
mins	-9372
near	-9373
ocol	-9374
oles	-9375
oser	-9376
owed	-9377
quer	-9378
resh	-9379
true	-9380
ttar	-9381
ufus	-9382
umor	-9383
uped	-9384
uted	-9385
vide	-9386
çais	-9387
▁(15	-9388
▁(21	-9389
▁(28	-9390
▁+1,	-9391
▁103	-9392
▁108	-9393
▁117	-9394
▁12:	-9395
▁15,	-9396
▁165	-9397
▁167	-9398
▁17.	-9399
▁175	-9400
▁18,	-9401
▁186	-9402
▁20%	-9403
▁203	-9404
▁216	-9405
▁223	-9406
▁248	-9407
▁25.	-9408
▁268	-9409
▁30.	-9410
▁333	-9411
▁350	-9412
▁4/1	-9413
▁80%	-9414
▁Bal	-9415
▁Ban	-9416
▁Ded	-9417
▁ERP	-9418
▁Ern	-9419
▁FCF	-9420
▁FOR	-9421
▁Fif	-9422
▁Fit	-9423
▁Fre	-9424
▁GfG	-9425
▁Gly	-9426
▁Hub	-9427
▁IDE	-9428
▁IPO	-9429
▁Jon	-9430
▁Jul	-9431
▁Kep	-9432
▁Loc	-9433
▁Nad	-9434
▁Nat	-9435
▁Ren	-9436
▁Suc	-9437
▁Tom	-9438
▁Tür	-9439
▁Ven	-9440
▁Vir	-9441
▁Was	-9442
▁Wil	-9443
▁ads	-9444
▁arr	-9445
▁box	-9446
▁cal	-9447
▁dog	-9448
▁hur	-9449
▁jus	-9450
▁map	-9451
▁mix	-9452
▁pdf	-9453
▁ped	-9454
▁ted	-9455
Large	-9456
Logic	-9457
Micro	-9458
Natur	-9459
SeerX	-9460
World	-9461
accur	-9462
acerb	-9463
annel	-9464
apore	-9465
apped	-9466
azing	-9467
break	-9468
empor	-9469
exper	-9470
frame	-9471
herAI	-9472
ience	-9473
iling	-9474
index	-9475
inson	-9476
ional	-9477
ishop	-9478
layer	-9479
night	-9480
ouses	-9481
oward	-9482
owicz	-9483
radle	-9484
razil	-9485
rides	-9486
riter	-9487
stein	-9488
style	-9489
tisan	-9490
tuned	-9491
ubert	-9492
uesky	-9493
ussed	-9494
utely	-9495
▁$150	-9496
▁$400	-9497
▁1017	-9498
▁1080	-9499
▁1940	-9500
▁1966	-9501
▁1993	-9502
▁24/7	-9503
▁AAAI	-9504
▁BTOS	-9505
▁Bing	-9506
▁Both	-9507
▁Bott	-9508
▁COMP	-9509
▁Chui	-9510
▁City	-9511
▁Clar	-9512
▁Cond	-9513
▁Corn	-9514
▁Coun	-9515
▁Days	-9516
▁Dick	-9517
▁Docs	-9518
▁Echo	-9519
▁Fall	-9520
▁Flor	-9521
▁Food	-9522
▁Gree	-9523
▁Guha	-9524
▁LSTM	-9525
▁Lect	-9526
▁Levy	-9527
▁Lisp	-9528
▁Look	-9529
▁MATH	-9530
▁Made	-9531
▁Mary	-9532
▁Mean	-9533
▁Once	-9534
▁Penn	-9535
▁Prec	-9536
▁RNNs	-9537
▁Redd	-9538
▁Scal	-9539
▁Semi	-9540
▁Sens	-9541
▁Shad	-9542
▁Soci	-9543
▁Soon	-9544
▁Stri	-9545
▁Sund	-9546
▁TSMC	-9547
▁Util	-9548
▁Wong	-9549
▁Wood	-9550
▁Zeal	-9551
▁Zero	-9552
▁blog	-9553
▁cast	-9554
▁conj	-9555
▁conv	-9556
▁fell	-9557
▁genu	-9558
▁gods	-9559
▁inad	-9560
▁info	-9561
▁issu	-9562
▁judg	-9563
▁lock	-9564
▁obst	-9565
▁quan	-9566
▁rock	-9567
▁save	-9568
▁seam	-9569
▁seek	-9570
▁sees	-9571
▁song	-9572
▁stre	-9573
▁surv	-9574
▁swit	-9575
▁tens	-9576
▁tied	-9577
▁tune	-9578
▁vict	-9579
▁wish	-9580
-2/25,	-9581
-2023,	-9582
-3/25,	-9583
50,000	-9584
Guilty	-9585
Israel	-9586
Others	-9587
Turing	-9588
Verlag	-9589
Weapon	-9590
access	-9591
ateway	-9592
atible	-9593
efront	-9594
enting	-9595
ermott	-9596
erning	-9597
estone	-9598
father	-9599
gories	-9600
herent	-9601
ibbean	-9602
idable	-9603
inical	-9604
irable	-9605
itated	-9606
koudas	-9607
lected	-9608
likely	-9609
mathbf	-9610
memory	-9611
morrow	-9612
narrow	-9613
ositor	-9614
racing	-9615
rators	-9616
ricate	-9617
unning	-9618
ursday	-9619
usions	-9620
▁11/22	-9621
▁1979,	-9622
▁1986,	-9623
▁1988,	-9624
▁1990,	-9625
▁1999,	-9626
▁2,000	-9627
▁2009.	-9628
▁2011,	-9629
▁5,000	-9630
▁Allow	-9631
▁Along	-9632
▁Break	-9633
▁Chief	-9634
▁Chips	-9635
▁Circa	-9636
▁Crime	-9637
▁Depth	-9638
▁Eleut	-9639
▁Entry	-9640
▁Flash	-9641
▁Fraud	-9642
▁Fuzzy	-9643
▁Geosp	-9644
▁Grant	-9645
▁Gross	-9646
▁Ideas	-9647
▁Jassy	-9648
▁Judge	-9649
▁Latin	-9650
▁Lewis	-9651
▁Loans	-9652
▁Louis	-9653
▁Lucas	-9654
▁Maths	-9655
▁Monte	-9656
▁Mortg	-9657
▁NAIRR	-9658
▁OSCAR	-9659
▁Pearl	-9660
▁Pitch	-9661
▁Reduc	-9662
▁Roman	-9663
▁Rufus	-9664
▁Sanch	-9665
▁Sched	-9666
▁SciPy	-9667
▁Solar	-9668
▁Spark	-9669
▁Sport	-9670
▁Steve	-9671
▁Swift	-9672
▁Synth	-9673
▁Texas	-9674
▁Uttar	-9675
▁Valid	-9676
▁Verge	-9677
▁Watch	-9678
▁Wired	-9679
▁ZDNET	-9680
▁adept	-9681
▁adopt	-9682
▁alert	-9683
▁annot	-9684
▁batch	-9685
▁birth	-9686
▁dates	-9687
▁deals	-9688
▁depic	-9689
▁digit	-9690
▁dimin	-9691
▁dream	-9692
▁eight	-9693
▁excit	-9694
▁feels	-9695
▁flags	-9696
▁fruit	-9697
▁globe	-9698
▁grasp	-9699
▁hopes	-9700
▁inequ	-9701
▁micro	-9702
▁miles	-9703
▁myths	-9704
▁noise	-9705
▁pairs	-9706
▁plain	-9707
▁pregn	-9708
▁quote	-9709
▁reput	-9710
▁rough	-9711
▁score	-9712
▁scrut	-9713
▁seeks	-9714
▁signs	-9715
▁sites	-9716
▁skill	-9717
▁strug	-9718
▁waves	-9719
▁women	-9720
▁worse	-9721
-12/24,	-9722
Dennett	-9723
achines	-9724
ceiving	-9725
created	-9726
cribing	-9727
deduped	-9728
earance	-9729
ectives	-9730
encoder	-9731
founder	-9732
growing	-9733
inceton	-9734
inement	-9735
ireless	-9736
leading	-9737
lection	-9738
mersive	-9739
quiries	-9740
ufactur	-9741
ulatory	-9742
urrency	-9743
usively	-9744
▁(1993)	-9745
▁(2003)	-9746
▁(2004)	-9747
▁(2016)	-9748
▁2001).	-9749
▁2016).	-9750
▁Across	-9751
▁Acting	-9752
▁Apigee	-9753
▁Brazil	-9754
▁Budget	-9755
▁Church	-9756
▁Coming	-9757
▁Compar	-9758
▁Contin	-9759
▁Corner	-9760
▁Effect	-9761
▁Estate	-9762
▁Expand	-9763
▁Finale	-9764
▁Footer	-9765
▁Groups	-9766
▁Halluc	-9767
▁Having	-9768
▁Higher	-9769
▁Hooker	-9770
▁Hypoth	-9771
▁Indeed	-9772
▁Kaiser	-9773
▁Kepler	-9774
▁Papert	-9775
▁Portug	-9776
▁PubMed	-9777
▁Putnam	-9778
▁Recurs	-9779
▁Satell	-9780
▁Senior	-9781
▁Taylor	-9782
▁Transc	-9783
▁UNESCO	-9784
▁Varied	-9785
▁Within	-9786
▁Worksh	-9787
▁acting	-9788
▁adding	-9789
▁admins	-9790
▁agency	-9791
▁axioms	-9792
▁begins	-9793
▁behave	-9794
▁bigger	-9795
▁binary	-9796
▁campus	-9797
▁caught	-9798
▁causes	-9799
▁celebr	-9800
▁centre	-9801
▁chains	-9802
▁colors	-9803
▁conduc	-9804
▁cycles	-9805
▁dystop	-9806
▁emphas	-9807
▁enthus	-9808
▁equity	-9809
▁exhaus	-9810
▁exists	-9811
▁extend	-9812
▁extent	-9813
▁flawed	-9814
▁forced	-9815
▁freely	-9816
▁fueled	-9817
▁giants	-9818
▁hiring	-9819
▁incumb	-9820
▁ingest	-9821
▁inters	-9822
▁irrele	-9823
▁leases	-9824
▁lethal	-9825
▁linear	-9826
▁mostly	-9827
▁normal	-9828
▁option	-9829
▁paired	-9830
▁phrase	-9831
▁played	-9832
▁poorly	-9833
▁prefer	-9834
▁propag	-9835
▁proven	-9836
▁purely	-9837
▁recall	-9838
▁relies	-9839
▁repeat	-9840
▁resign	-9841
▁sample	-9842
▁saving	-9843
▁steady	-9844
▁string	-9845
▁travel	-9846
▁	-9847
e	-9848
t	-9849
a	-9850
i	-9851
n	-9852
o	-9853
r	-9854
s	-9855
l	-9856
c	-9857
d	-9858
h	-9859
u	-9860
m	-9861
g	-9862
p	-9863
f	-9864
y	-9865
.	-9866
,	-9867
b	-9868
v	-9869
A	-9870
w	-9871
I	-9872
2	-9873
=	-9874
S	-9875
k	-9876
0	-9877
C	-9878
T	-9879
1	-9880
M	-9881
P	-9882
-	-9883
R	-9884
)	-9885
(	-9886
x	-9887
G	-9888
5	-9889
D	-9890
E	-9891
L	-9892
B	-9893
N	-9894
3	-9895
4	-9896
9	-9897
:	-9898
F	-9899
W	-9900
/	-9901
H	-9902
O	-9903
U	-9904
z	-9905
8	-9906
6	-9907
7	-9908
–	-9909
&	-9910
"	-9911
J	-9912
’	-9913
q	-9914
j	-9915
'	-9916
[	-9917
]	-9918
V	-9919
\	-9920
K	-9921
Q	-9922
?	-9923
Y	-9924
;	-9925
+	-9926
^	-9927
“	-9928
”	-9929
$	-9930
%	-9931
_	-9932
‘	-9933
—	-9934
•	-9935
X	-9936
*	-9937
Z	-9938
|	-9939
!	-9940
@	-9941
{	-9942
}	-9943
а	-9944
	-9945
~	-9946
#	-9947
к	-9948
с	-9949
→	-9950
ü	-9951
©	-9952
×	-9953
р	-9954
↑	-9955
é	-9956
ö	-9957
−	-9958
ر	-9959
®	-9960
и	-9961
>	-9962
`	-9963
ç	-9964
ñ	-9965
ا	-9966
§	-9967
о	-9968
л	-9969
ी	-9970
у	-9971
Б	-9972
е	-9973
т	-9974
ा	-9975
ာ	-9976
ⴰ	-9977
â	-9978
š	-9979
н	-9980
語	-9981
à	-9982
ш	-9983
ы	-9984
ե	-9985
י	-9986
ⵜ	-9987
я	-9988
و	-9989
ي	-9990
ی	-9991
中	-9992
è	-9993
в	-9994
г	-9995
